#version: 0.2
p o
po s
a pos
& apos
o u
t h
e n
a i
&apos ;</w>
r e</w>
a n
e s</w>
i n
q u
o n
e r</w>
l e</w>
e s
i s</w>
a r
&apos ;
d e</w>
a s</w>
o n</w>
e r
o u</w>
th e</w>
y ou</w>
n e</w>
t o</w>
e l
m e</w>
t i
j e</w>
a v
ou s</w>
r e
es t</w>
@ -
@- @</w>
e n</w>
e d</w>
r i
c h
a l
a t</w>
e u
in g</w>
en t</w>
o m</w>
t e</w>
qu e</w>
c e</w>
o r
t r
i l</w>
o m
l i
d i
p as</w>
s e</w>
l a</w>
T om</w>
p r
i t</w>
h e</w>
e m
s u
n o
ai s</w>
v ous</w>
i l
a u
w h
p l
i n</w>
&apos; t</w>
a n</w>
ai t</w>
e t</w>
u n</w>
l es</w>
a s
l &apos;</w>
e z</w>
i t
s t
a t
t u</w>
o f</w>
e v
an t</w>
n &apos;</w>
a i</w>
j &apos;</w>
po u
m o
a g
a m
th at</w>
é t
f o
e a
p ar
l o
c om
u s
e re</w>
e t
&apos; s</w>
t re</w>
a p
i s
c on
v e</w>
u ne</w>
el le</w>
d &apos;</w>
ou t</w>
av e</w>
on s</w>
an d</w>
ou r</w>
r o
a c
a b
c o
eu x</w>
n ous</w>
t o
v o
d o
h o
d o</w>
a y</w>
s i
qu o
h ave</w>
k e</w>
a re</w>
b e
c ou
l d</w>
i r</w>
th is</w>
en d
w as</w>
u s</w>
qu &apos;</w>
d é
v i
w e</w>
s o
an s</w>
a ti
m y</w>
t es</w>
t s</w>
i c
fo r</w>
l y</w>
s he</w>
no t</w>
g h
d on</w>
on t</w>
an g
h i
wh at</w>
v er
g o
e c
f ai
t er</w>
d es</w>
u n
pou r</w>
b e</w>
on e</w>
pr o
c &apos;</w>
e x
c an</w>
y our</w>
th e
su is</w>
ou r
l e
no w</w>
al l</w>
s on</w>
f r
ai n</w>
m ent</w>
&apos; m</w>
é e</w>
d ans</w>
t ;</w>
s e
quo t;</w>
gh t</w>
& quot;</w>
a y
è re</w>
b o
em ent</w>
p en
c i
b i
a r</w>
a l</w>
d u</w>
p er
l u
a d</w>
a d
c h</w>
b u
p e
it h</w>
m es</w>
n e
f f
s i</w>
w ith</w>
qu i</w>
ç a</w>
i m
t u
r es
h is</w>
al l
ch o
p u
c u
pl us</w>
&apos; re</w>
w ant</w>
t er
po r
a u</w>
m i
li ke</w>
r é
fai re</w>
M ar
th ing</w>
s &apos;</w>
th er</w>
k now</w>
w or
n i
the y</w>
t en
mo i</w>
th ere</w>
m &apos;</w>
eu r</w>
è s</w>
ai n
th in
m on
ét ait</w>
i r
e c</w>
ag e</w>
t out</w>
as s
ho w</w>
h er</w>
e l</w>
l l</w>
f u
av ec</w>
ou ld</w>
f ait</w>
d ev
ou v
ti on</w>
ap p
m on</w>
ati on</w>
s om
p s</w>
s h
f or
r es</w>
ê tre</w>
s p
s es</w>
hi m</w>
il s</w>
us t</w>
t ou
t em
en t
a ke</w>
g o</w>
an d
d ay</w>
ar ri
g u
pou r
i e</w>
s ont</w>
t ed</w>
es s
di d</w>
on n
in e</w>
h as</w>
el l</w>
il l</w>
k ing</w>
g r
ar d</w>
an ce</w>
s er
r en
o d</w>
j our
t é</w>
Mar y</w>
g et</w>
ti me</w>
tem ps</w>
et te</w>
d n</w>
quo i</w>
ea u</w>
b l
s t</w>
il l
v eux</w>
p i
ver y</w>
thin k</w>
qu el
p ri
su r</w>
pr é
a te</w>
d e
b le</w>
ai s
n o</w>
o k</w>
m an
d u
o p
bi en</w>
d er
&apos; ve</w>
ev er</w>
h u
f i
m ar
w ill</w>
tr av
on ne</w>
lu i</w>
h ad</w>
&apos; ll</w>
ev er
d er</w>
tr o
i f</w>
av ez</w>
tr ès</w>
ab le</w>
ou n
ou l
o r</w>
g ar
ê tes</w>
c ette</w>
m e
m a</w>
en ts</w>
en s</w>
di s
c l
ét é</w>
w ere</w>
eu t</w>
ab out</w>
v en
s ais</w>
s a</w>
m in
f in
h eu
h ere</w>
av o
t é
c el
wh o</w>
k s</w>
g i
ch e</w>
s o</w>
r ai
fr om</w>
end re</w>
bu t</w>
u p</w>
il le</w>
di t</w>
vo tre</w>
al ly</w>
r s</w>
n u
f e
a me</w>
s or
k ed</w>
d em
m u
j am
it u
e ar
di dn</w>
d s</w>
p ar</w>
li v
er s</w>
wh ere</w>
mo re</w>
l er</w>
ic i</w>
as t</w>
m ais</w>
c es</w>
j ust</w>
a m</w>
o ù</w>
b y</w>
a f
wh y</w>
t al
r y</w>
g e</w>
co me</w>
m a
be au
w ould</w>
l on
trav ai
re u
en d</w>
wh en</w>
t t
an y
an ts</w>
pour quoi</w>
ay s</w>
t h</w>
s em
é ri
h el
en ce</w>
u e</w>
vo ir</w>
som e
s el
p eux</w>
avo ir</w>
i re</w>
go od</w>
e e
jam ais</w>
go ing</w>
s eu
com ment</w>
p h
ever y
am i</w>
r ais</w>
en ti
au x</w>
w ay</w>
to i</w>
j o
cho se</w>
t &apos;</w>
pen se</w>
m er
st o
p re
ne ed</w>
cou p</w>
g s</w>
ea r</w>
di ff
c r
é s</w>
v oul
t on</w>
t ing</w>
el les</w>
c ro
b r
t ell</w>
se e</w>
h om
c or
ai re</w>
t ous</w>
per s
p ass
w i
t y</w>
st u
pl a
m an</w>
es s</w>
v rai
sh ould</w>
cel a</w>
av ons</w>
&apos; d</w>
é r
n ever</w>
i on</w>
com me</w>
be en</w>
av ait</w>
v er</w>
to o</w>
s ou
i g
f ri
ai d</w>
pl ea
w n</w>
re d</w>
p eut</w>
e u</w>
su r
l l
au s
a ch
re ad
p e</w>
n er</w>
mu ch</w>
jour s</w>
d y</w>
beau coup</w>
an y</w>
vrai ment</w>
v is
li s
hel p</w>
di re</w>
c ri
th an</w>
plea se</w>
com m
po n
con n
t om
m ê
m or
l et</w>
f a
av ais</w>
ai me</w>
s ti
ri ght</w>
on ly</w>
pou v
cou ld</w>
tro p</w>
re ally</w>
ac k</w>
tr ain</w>
t ri
o f
ch er</w>
pr endre</w>
e y</w>
d r
c ar</w>
c ar
S ami</w>
wor k</w>
quel que</w>
mê me</w>
b es
vi e</w>
t ake</w>
sel f</w>
re e</w>
qu es</w>
qu es
par ti
g ent</w>
end s</w>
c k</w>
ais s
por t
pe ti
ou ght</w>
go t</w>
ai r</w>
tu re</w>
tr u
ri en</w>
o l</w>
b li
all er</w>
qu and</w>
ne w</w>
m é
in s</w>
w at
v a</w>
sp ea
i te</w>
g h</w>
m ai
j ou
i le</w>
h app
en f
d ent</w>
oun d</w>
o in</w>
o c
j us
so me</w>
n ouv
mon de</w>
m ain
lo t</w>
el i
dé j
d eux</w>
co re</w>
t a</w>
re c
fo is</w>
en core</w>
at t
t el
por te</w>
par ler</w>
l ang
f er
bes oin</w>
ang er</w>
é es</w>
m er</w>
lo o
l et
f au
com p
c er
ti ons</w>
r ê
l à</w>
som mes</w>
pr es
pers onne</w>
es e</w>
d onn
c au
b re</w>
ét ais</w>
pu is</w>
so l
read y</w>
p ère</w>
or s</w>
lo ve</w>
hom me</w>
con tr
b er</w>
an te</w>
m ust</w>
l é
f e</w>
f am
v ais</w>
tr ouv
tou jours</w>
re m
pe u</w>
l ement</w>
bo dy</w>
vo itu
r ait</w>
qu el</w>
pr is</w>
l ast</w>
eu rs</w>
v u</w>
some thing</w>
s a
m ake</w>
e p
pr ès</w>
o ther</w>
do es</w>
arri v
su p
s en
qu elle</w>
k es</w>
h ab
et s</w>
do is</w>
cou r
ch ez</w>
av ant</w>
ar gent</w>
ang e</w>
tr y</w>
fu l</w>
ai ent</w>
î t</w>
t w
su re</w>
n ing</w>
aus si</w>
ê te</w>
w s</w>
tr ou
s w
r ou
r ai</w>
mon ey</w>
mai son</w>
gi ve</w>
es n</w>
do esn</w>
ch il
ch i
b on</w>
Mar ie</w>
t ea
pe op
peop le</w>
in ter
g re
el y</w>
d es
d ec
b eli
vo y
tt le</w>
so it</w>
ro w</w>
lon g</w>
it é</w>
g l
ec t</w>
d re</w>
arri ve</w>
w ent</w>
tr es</w>
r a
ho me</w>
d ed</w>
ai ne</w>
voitu re</w>
s in
on g</w>
is h</w>
h e
f ac
e as
diff ic
tu r
travai l</w>
s ho
re gar
r ent</w>
pen s
no tre</w>
m at
l le</w>
spea k</w>
s cho
reu x</w>
par t</w>
lo ok</w>
beli ev
b re
au tre</w>
as se</w>
u r
the m</w>
ten ant</w>
t a
ro om</w>
g er</w>
b et
any thing</w>
ô t</w>
u l
to ld</w>
sem ble</w>
s ay</w>
s aid</w>
pr om
po in
ni ght</w>
n ed</w>
main tenant</w>
cau se</w>
c lo
at s</w>
œ u
s le
s ans</w>
pro bl
oc cu
li ttle</w>
fr an
al i
ach et
v es</w>
to day</w>
t e
sti ll</w>
le ave</w>
fin d</w>
déj à</w>
dem and
tal k</w>
t ard</w>
scho ol</w>
r u
ou se</w>
man y</w>
m is
l s</w>
g ir
fri end</w>
fo re</w>
b ack</w>
vi v
us ed</w>
tw o</w>
si ble</w>
pro b
n ée</w>
m us
m al
jour d&apos;</w>
it y</w>
it s</w>
hu i</w>
d re
com pl
be fore</w>
b ro
au jourd&apos;</w>
w ell</w>
w ays</w>
ven ir</w>
st ar
s ed</w>
k no
ic h</w>
fau t</w>
f ir
E n
y ing</w>
w ee
pl u
of f</w>
d ét
an c
al ways</w>
ai mer
ac c
ét u
th ought</w>
t en</w>
o ld</w>
l ate</w>
j our</w>
h ouse</w>
fa ther</w>
ex p
every thing</w>
com bien</w>
bo ok</w>
b us
at ed</w>
an t
è me</w>
w on</w>
w e
ri ez</w>
re ad</w>
po li
pla ît</w>
par l
par ents</w>
lang u
il les</w>
b ou
app el
w as
o b
ma de</w>
m al</w>
le ar
heu res</w>
h av
g lis
believ e</w>
at ten
w an
v ed</w>
tou tes</w>
no thing</w>
li fe</w>
l eur</w>
in d</w>
happ y</w>
gr and</w>
f em
der ni
d or
au c
ar rê
ai de</w>
é l
un der
t ement</w>
s m
s ait</w>
r a</w>
pla ce</w>
or y</w>
or row</w>
l aiss
k ee
enf ants</w>
ear s</w>
di c
c ame</w>
ati ons</w>
F ren
é co
éco le</w>
w ri
li ve</w>
g en
fe el</w>
en tr
e at</w>
an de</w>
ag ain</w>
Fren ch</w>
seu l</w>
qu i
o se</w>
liv re</w>
l or
is n</w>
in té
in to</w>
f t</w>
cou n
c le</w>
aimer ais</w>
a z
étu di
é n
z e</w>
wi th
wh ich</w>
wan ted</w>
tou te</w>
t ant</w>
si m
ou gh</w>
occu p
o ff
m ay</w>
ess ay
e y
ç on</w>
ç ais</w>
t ôt</w>
s ec
pu t</w>
p ho
our s</w>
mo st</w>
j u
il y</w>
hu r
hi er</w>
fir st</w>
f l
dé e</w>
d in
co l
b onne</w>
ar y</w>
al one</w>
a près</w>
C h
B o
é cri
v ou
v it
to ok</w>
th ese</w>
ren contr
pass é</w>
p end
lor s
i se</w>
glis h</w>
do g</w>
d é</w>
cer t
c k
c et</w>
bet ter</w>
ang l
ag er</w>
a way</w>
En glish</w>
tom orrow</w>
s û
ques tion</w>
pre mi
ph one</w>
peti t</w>
m ag
lo w
jus te</w>
end u</w>
en n
e ff
dem ain</w>
d ing</w>
chi en</w>
angl ais</w>
al ready</w>
vi ens</w>
the ir</w>
su c
si on</w>
pro f
jo b</w>
h ard</w>
g e
fu t</w>
fran çais</w>
c ap
bu y</w>
b or
ag es</w>
a le</w>
with out</w>
u ti
th ree</w>
t ez</w>
st and</w>
pos sible</w>
mi eux</w>
im port
en ough</w>
d ro
d ou
be cause</w>
b ar
ac ci
F r
é g
tro is</w>
si st
s tr
s ci
pouv ez</w>
por t</w>
nu it</w>
ig n
e p</w>
d one</w>
ch é</w>
ass ez</w>
as s</w>
ai der</w>
t eur</w>
res s
par le</w>
min d</w>
l a
ic i
i de
h ed</w>
h ap
ch er
ch ang
ver s
té lé
seu le</w>
s é
s ouv
s al
o ver</w>
o ri
m et
le ft</w>
i d</w>
g ens</w>
dre n</w>
do wn</w>
d û</w>
b est</w>
af ter</w>
wee k</w>
un i
to r</w>
se en</w>
ques tions</w>
pu l
pl o
p eur</w>
mo ins</w>
m ati
kee p</w>
fem me</w>
f ille</w>
ev en</w>
en ne</w>
em ber</w>
chil dren</w>
ch ar
ch am
as ked</w>
acci dent</w>
a de</w>
œu r</w>
w in
v eu
tr an
thin gs</w>
t re
st on</w>
sor ry</w>
s ent</w>
pl an</w>
pen ed</w>
n on</w>
n ame</w>
min u
l un
k en</w>
i ons</w>
i ce</w>
es p
en c
dr in
do or</w>
d is</w>
cho ses</w>
b ri
I n
Bo ston</w>
v eut</w>
sto p</w>
so ir</w>
quel qu&apos;</w>
pré f
pos e</w>
p le</w>
p ati
ou bli
o l
nouv eau</w>
m ère</w>
m om
ide a</w>
i v
g ro
f ais</w>
ex ac
ever y</w>
ea d</w>
de puis</w>
y ears</w>
voul ez</w>
voul ais</w>
vo s</w>
v e
tea cher</w>
sa w</w>
s avoir</w>
quel ques</w>
pré ci
pl ay</w>
pen sais</w>
p ic
p ay
m et</w>
loo king</w>
li re</w>
i dée</w>
i c</w>
heu re</w>
ex t</w>
er re</w>
en tre</w>
em s</w>
ec i</w>
do it</w>
do c
c eci</w>
J ap
wat er</w>
ti mes</w>
t able</w>
sim pl
pu is
poin t</w>
pl eu
parti r</w>
of ten</w>
nu m
mar i
m is</w>
m anger</w>
l ar
dé sol
do ing</w>
diffic ul
con t
c i</w>
c an
bus y</w>
bo o
be ing</w>
ai m
v éri
under stand</w>
trou ve</w>
ti ve</w>
r ant</w>
pro du
pri se</w>
pl an
mom ent</w>
m y
li c
heu reux</w>
h and
for m
f ro
e i
au rais</w>
at o
a th
w al
u se</w>
sor ti
simpl ement</w>
n om</w>
mo ther</w>
lo st</w>
j eu
gre at</w>
fr aid</w>
es ter
demand é</w>
cro is</w>
cou rs</w>
con du
ch em
c re
b us</w>
au gh
as k</w>
ag ne</w>
a fraid</w>
Fr ance</w>
y ester
yester day</w>
wor ld</w>
w r
w ants</w>
ver s</w>
sem aine</w>
s ing</w>
s er</w>
s au
rem ember</w>
re ment</w>
pr ê
pend ant</w>
n om
n ext</w>
hab itu
h ar
e b
dev rais</w>
d ri
c in
c all</w>
bre a
au tres</w>
ain s</w>
D an</w>
y oun
w om
vi e
u re</w>
t eau</w>
souv ent</w>
sec re
s k
pl ay
p ed</w>
m ine</w>
k new</w>
fai tes</w>
cor rec
co ld</w>
ch es</w>
ch ance</w>
b ad</w>
an k</w>
all é</w>
achet er</w>
a w
y s</w>
v rai</w>
t el</w>
res t
probl ème</w>
pr in
pi è
peti te</w>
p u</w>
me ill
import ant</w>
i que</w>
f ound</w>
f on
every one</w>
eu se</w>
eas y</w>
d i</w>
con se
atten tion</w>
at ing</w>
arri ed</w>
ac cor
a do
ven u</w>
trouv é</w>
t our
si de</w>
s ens</w>
s avais</w>
ri r</w>
res pon
p ays</w>
me et</w>
m il
li t</w>
l ais
jus qu&apos;</w>
j et</w>
i es</w>
i d
hi sto
f il
f ast</w>
ex c
derni ère</w>
d res
con si
be g
b ed</w>
ét aient</w>
é tr
y ez</w>
wr ong</w>
wor d</w>
tur n</w>
tru th</w>
t ly</w>
sle ep</w>
s tru
s mo
re z</w>
re tard</w>
p ap
o th
n is</w>
mor t</w>
m arried</w>
let tre</w>
g n
g et
fe w</w>
et tes</w>
er a</w>
ear ly</w>
dor m
dev ons</w>
com ing</w>
cham bre</w>
ch an
al is
ai se</w>
a po
youn g</w>
y et</w>
vo l
vi r
ti onn
th ose</w>
suc c
st ory</w>
st ay</w>
sorti r</w>
sm all</w>
ré pon
qu er</w>
pr ends</w>
po pul
per du</w>
p ê
on ce</w>
lo w</w>
let ter</w>
kno ws</w>
i de</w>
h ear</w>
fam ille</w>
fac ile</w>
f ar</w>
drin k</w>
doc tor</w>
cu l
c all
boo ks</w>
au v
ar ti
ar ound</w>
ap préci
an other</w>
a que</w>
è rent</w>
y eux</w>
y ear</w>
w ar
w ai
v ille</w>
uti lis
tal king</w>
s é</w>
s y
s an
r ap
pro ch
pho to</w>
p ay</w>
p ain</w>
o k
no s</w>
m en
m ang
l ing</w>
k ind</w>
it al</w>
inter es
in gs</w>
h ors</w>
every body</w>
eb a</w>
di st
d ents</w>
ch ing</w>
c at</w>
c are</w>
ato eba</w>
ar en</w>
an im
T atoeba</w>
P ar
y our
w ea
véri té</w>
vi ce</w>
tur ned</w>
trouv er</w>
tr ue</w>
ter s</w>
t our</w>
sin ce</w>
s itu
s how</w>
rai son</w>
r el
prob ab
pen ses</w>
par ty</w>
oul dn</w>
ou t
op in
my self</w>
mor ning</w>
inté ress
in dre</w>
hav ing</w>
h un
h on
et ing</w>
es se</w>
ea ch</w>
dev en
cou l
con tre</w>
comm enc
b at
auc un</w>
a ff
A n
é ni
wat ch</w>
w on
v ac
ti red</w>
th é
st s</w>
ser a</w>
s ons</w>
s ent
reu se</w>
pu bli
por ter</w>
pi an
ni ce</w>
n é</w>
n at
liv es</w>
li e</w>
lear n</w>
in form
im ag
ill ed</w>
i li
i ez</w>
ho pe</w>
happ en</w>
hap pened</w>
h or
g g
fa ce</w>
es te</w>
dis pos
b all</w>
ap prendre</w>
any more</w>
all ez</w>
é ren
é cou
é c
è res</w>
wh ile</w>
viv re</w>
vi te</w>
vi ent</w>
vi end
v ue</w>
travai l
tran s
ter n
tel li
stu pi
si g
seu lement</w>
s ous</w>
r ain</w>
prob le
proble m</w>
pour rais</w>
poli ce</w>
par t
p asse</w>
m ain</w>
lors que</w>
lo in</w>
li st
jeu ne</w>
in vit
in telli
i ght</w>
histo ire</w>
h ô
fe el
fam ily</w>
f us
f en
ex am
ent re
em plo
e ful</w>
déj eu
diffic ile</w>
di at
d onne</w>
cu is
coun try</w>
coul dn</w>
ch au
ch ange</w>
c al
c af
arriv é</w>
app elle</w>
ang er
acc ep
a se</w>
é ti
è te</w>
your self</w>
voy age</w>
su ch</w>
so is</w>
situ ation</w>
s hi
s av
s ame</w>
rest au
restau rant</w>
res p
pour rait</w>
piè ce</w>
per son</w>
opin ion</w>
ne e
n our
minu tes</w>
man i
m self</w>
m ing</w>
loo ks</w>
liv res</w>
li kes</w>
lang ue</w>
lais se</w>
l é</w>
jour née</w>
in st
i er</w>
hi mself</w>
h er
gir l</w>
gar çon</w>
g ave</w>
g ag
f ree</w>
dé ci
donn é</w>
di rec
d ont</w>
d en
d ays</w>
cro ire</w>
conn a
ch ev
ch at</w>
auc une</w>
al ement</w>
a ce</w>
î ner</w>
wri te</w>
w ait</w>
ve ill
v in
us es</w>
u t</w>
u i</w>
travai lle</w>
to ge
toge ther</w>
t ête</w>
sist er</w>
si x</w>
s po
r é</w>
par ce</w>
p ain
ou ver
onn es</w>
ob j
o t</w>
o h
n er
mé dec
mo t</w>
mis s</w>
mi st
met tre</w>
ma kes</w>
langu age</w>
is t</w>
is hed</w>
hav en</w>
gr and
fro id</w>
fri ends</w>
for t</w>
fo l
f ête</w>
f illes</w>
er ai</w>
d anger
conn aiss
conn ais</w>
co û
cel ui</w>
c ent</w>
c en
c am
c al</w>
beau ti
b les</w>
au tant</w>
arrê ter</w>
an sw
an ces</w>
achet é</w>
0 0</w>
é ch
w ard</w>
vou d
v ent</w>
v as</w>
tt en</w>
t y
t ai
sû r</w>
su iv
star ted</w>
some one</w>
sen ten
se con
s enti
ri ons</w>
qu é</w>
qu it
préf ér
pro pos
pian o</w>
pens é</w>
p t</w>
p eu
p er</w>
o le</w>
nouv elle</w>
no body</w>
mi ght</w>
mati n</w>
lu tion</w>
l ess</w>
is ion</w>
i ds</w>
h ear
gu e</w>
get ting</w>
f it</w>
enf ant</w>
en se
e e</w>
désol é</w>
dem ande</w>
cu ri
com prendre</w>
co ff
chil d</w>
ch aque</w>
bi r
bi g</w>
b ought</w>
at h</w>
ant age</w>
ado re</w>
ac t</w>
écri t</w>
wom an</w>
win do
was n</w>
voul ait</w>
us tr
un ti
unti l</w>
télé phone</w>
t on
t ain</w>
su ff
stu dy</w>
so yez</w>
secre t</w>
se ems</w>
se e
s il
ri ture</w>
ri s
read ing</w>
pri e</w>
premi er</w>
po is
pen d</w>
pe ine</w>
ou s
nour riture</w>
ne i
médec in</w>
me eting</w>
m éri
m ou
m it</w>
lors qu&apos;</w>
lon g
long temps</w>
li ght</w>
ig no
ic y
fr ère</w>
fin i</w>
f un</w>
f all
er reu
ent endu</w>
en semble</w>
ec ted</w>
déjeu ner</w>
dres s</w>
difficul t</w>
diff er
di x</w>
di tes</w>
dev rait</w>
d a</w>
cu t</w>
con f
con cer
can not</w>
call ed</w>
bro ther</w>
beauti ful</w>
b it</w>
b icy
b eau</w>
b an
b al
at er</w>
ap par
any one</w>
am ou
ai e</w>
accor d</w>
Par is</w>
N o
y er</w>
wor king</w>
v ing</w>
un der</w>
u es</w>
té s</w>
travail ler</w>
ten nis</w>
t in
su b
st ation</w>
si ck</w>
sci enti
s s</w>
s et</w>
s avez</w>
ri ch</w>
r er</w>
pres que</w>
premi ère</w>
pouv ons</w>
p ing</w>
p an
mat ter</w>
m ent
l ed</w>
jou e</w>
inform ation</w>
i di
ho t</w>
he ard</w>
he al
habitu de</w>
h ours</w>
gr ande</w>
essay er</w>
eff or
dét este</w>
din ner</w>
d on
cou ver
col ère</w>
c ed</w>
c as
bo y</w>
bl ess
b é</w>
b é
at es</w>
ar s</w>
ac ti
a k
G er
wai ting</w>
vo is</w>
travai ll
tr ying</w>
tr er</w>
ti que</w>
t or
su m
su jet</w>
sp ec
s œur</w>
rou gh</w>
rou ge</w>
ri st
re au</w>
pri t</w>
plu tôt</w>
op en</w>
off ice</w>
o wn</w>
n ess</w>
mo is</w>
meill eur</w>
m s</w>
lo g
li eu</w>
le av
l ent</w>
jou er</w>
it ed</w>
in t</w>
ill ez</w>
ill age</w>
il es</w>
i st
h ate</w>
h as
h and</w>
gir ls</w>
fo od</w>
fin ished</w>
f ish</w>
f el
f ati
ey es</w>
en ces</w>
do ll
di ed</w>
d îner</w>
d et
coff ee</w>
co ll
chev eux</w>
ch e
caf é</w>
c é
bu reau</w>
az y</w>
au t</w>
ati on
apo n</w>
am ie</w>
all ons</w>
ai res</w>
a di
J apon</w>
A ustr
. .</w>
è mes</w>
wi fe</w>
v él
tu res</w>
tt y</w>
tri ed</w>
tr ai
th ir
ter ri
ta x
sw im
sup pose</w>
su l
so on</w>
si ve</w>
ser ait</w>
s se</w>
s on
s ac
r om
prê t</w>
pre tty</w>
or din
occup é</w>
num ber</w>
n ec
n ager</w>
liv ing</w>
liv ed</w>
laiss er</w>
l ev
l ait</w>
k is
in er</w>
igno re</w>
i x</w>
i tion</w>
hear t</w>
h ead</w>
h air</w>
gl ad</w>
fr u
for t
for get</w>
fi ve</w>
fati gu
f ic
ex per
es père</w>
er ed</w>
el se</w>
d augh
ci r
c li
bor n</w>
bo th</w>
bar r
b lo
b elle</w>
ay la</w>
av antage</w>
att end
ati ve</w>
at tr
an ese</w>
al most</w>
ad u
ad mi
O h</w>
L ayla</w>
Jap anese</w>
Jap an</w>
E u
D i
A l
2 0
1 0</w>
. ..</w>
écri re</w>
wea ther</w>
we en</w>
w ish</w>
w er</w>
u p
ti on
thin king</w>
ter min
tel lement</w>
t ar
sur pri
so ci
sle ep
sen se</w>
san té</w>
ri te</w>
ren d</w>
regar der</w>
regar de</w>
r end
qu at
pou voir</w>
plu ie</w>
pass er</w>
parti e</w>
p un
oubli é</w>
ou i</w>
o t
o ir</w>
no ir</w>
ne l</w>
mil k</w>
mer ic
mal ade</w>
kno wn</w>
in ten
in es</w>
im mé
i ti
hur t</w>
h al
fu ture</w>
fu mer</w>
fil m</w>
fel t</w>
f in</w>
f ils</w>
er g
enn ent</w>
en nu
el s</w>
el lement</w>
ea l</w>
doll ars</w>
dec i
de hors</w>
d d
comp te</w>
comp any</w>
chem in</w>
c œur</w>
c er</w>
bu r
ass es</w>
ar t</w>
ar i
appel er</w>
answ er</w>
an g</w>
ain es</w>
ad vice</w>
ac tu
a pon
T V</w>
J oh
wal k</w>
vél o</w>
vis it</w>
vi eux</w>
veu illez</w>
v in</w>
v illage</w>
u su
th rough</w>
th en</w>
ten ir</w>
swim ming</w>
stru c
ser v
s éri
s ati
sati s
s af
res ter</w>
re ci
r endre</w>
r ais
puis se</w>
prom ise</w>
prof ess
probl èmes</w>
pri x</w>
pr ess
po s</w>
pi e
n or
n i</w>
mani ère</w>
main s</w>
mag as
m ents</w>
m ay
lo gi
langu es</w>
laiss é</w>
la quelle</w>
l es
k et</w>
is te</w>
im porte</w>
im p
i a</w>
hab ite</w>
h ind</w>
g éni
g é</w>
g le</w>
fi gu
f ell</w>
exper i
er min
entre prise</w>
ense ign
en ing</w>
du r</w>
dorm ir</w>
diff éren
dev ez</w>
d avantage</w>
d ar
con fi
cl ass</w>
ck et</w>
car eful</w>
c tu
c ré
c le
c ass
brea k</w>
bl ack</w>
be hind</w>
be come</w>
ay ing</w>
ay ed</w>
at eur</w>
arriv ed</w>
ar ro
ap pris</w>
ap pr
ang ry</w>
an née</w>
am our</w>
al ors</w>
ain si</w>
ag o</w>
ag no
M on
Eu ro
A meric
1 9
éc ess
é p
wor ry</w>
wor ks</w>
wor ds</w>
won der</w>
wh ole</w>
w ouldn</w>
w ine</w>
vis ion</w>
v it</w>
u m
tri p</w>
tr om
ton ight</w>
t end
t elle</w>
surpri sed</w>
stu dents</w>
sto re</w>
sti tu
st and
si r</w>
ser ai</w>
sem bl
ré us
ro ad</w>
ri ère</w>
ri che</w>
rencontr er</w>
re as
r un
r ing</w>
r am
quat re</w>
qu ite</w>
pour riez</w>
po m
pho to
peu vent</w>
pens ez</w>
pay er</w>
pati ent</w>
parl ez</w>
p re</w>
oth ers</w>
nouv elles</w>
ne ws</w>
n écess
mo ts</w>
mar ché</w>
mar che</w>
mang é</w>
l u</w>
l av
k illed</w>
k ey</w>
interes ted</w>
hi gh</w>
heu reuse</w>
h é
h ai
gu ess</w>
g ame</w>
fe u</w>
f s</w>
f our</w>
f ont</w>
f lu
f low
f er</w>
exp éri
exac tly</w>
ent endre</w>
end ro
en vie</w>
en jo
en g
e aux</w>
dé r
don c</w>
dev riez</w>
der rière</w>
deci ded</w>
d anger</w>
correc t</w>
con que</w>
con c
com es</w>
clo se</w>
ck y</w>
cin q</w>
c ity</w>
bu il
bet ween</w>
b on
b as
att endre</w>
am is</w>
ain st</w>
ai mes</w>
ai ls</w>
ag ainst</w>
In tern
ér o</w>
è rement</w>
ç ons</w>
z ed</w>
y ours</w>
windo w</w>
wat ching</w>
w o
voud rais</w>
us h</w>
uni vers
un ion</w>
to wn</w>
ti ent</w>
ti c</w>
sup pos
su n
smo king</w>
ser ais</w>
scienti fi
ra di
r un</w>
r t</w>
publi c</w>
pu ter</w>
profess eur</w>
proch ain</w>
pro pos</w>
pr u
pr end
pouv ait</w>
p auv
or der</w>
on es</w>
obj ec
o ver
nec ess
n y</w>
n es</w>
mus ique</w>
mi di</w>
magas in</w>
m ess
m au
m ange</w>
lon ger</w>
le il</w>
lar ge</w>
laiss ez</w>
l augh
ir s</w>
inten tion</w>
intelli gent</w>
inst ant</w>
immé diat
immédiat ement</w>
ign or
ic k
i ent</w>
hur ry</w>
he av
hand s</w>
h am
gr ou
fr app
fen être</w>
fatigu é</w>
fai m</w>
fa çon</w>
f ou
exac tement</w>
er ais</w>
ep t</w>
effor ts</w>
e f</w>
de ath</w>
daugh ter</w>
d ance</w>
d an
cou ple</w>
cou p
co st</w>
cl ear</w>
chau d</w>
ch ed</w>
c at
bou lot</w>
bi ère</w>
bi li
be came</w>
barr ass
b res</w>
b es</w>
b as</w>
attr ap
appréci e</w>
ap poin
an ni
an e</w>
am us
am ment</w>
al s</w>
ab les</w>
a che</w>
Joh n</w>
A p
3 0</w>
éti ez</w>
é qui
é pou
ç u</w>
â ge</w>
y o</w>
y es</w>
wi m</w>
w ing</w>
ver re</w>
vac ances</w>
télé vision</w>
tr adu
to p</w>
th s</w>
th ank</w>
tel ling</w>
t ée</w>
t ats</w>
sû re</w>
sum mer</w>
su res</w>
stu dent</w>
star t</w>
some times</w>
so lu
sho t</w>
sh or
ser i
s wim</w>
s s
s pend</w>
ré f
rou te</w>
r ac
pê cher</w>
pr en
po or</w>
pl e
parl é</w>
p ast</w>
ok yo</w>
o ds</w>
nécess aire</w>
no on</w>
mus ic</w>
mon tre</w>
mer ci</w>
may be</w>
mau vais</w>
mag az
ma king</w>
lu cky</w>
loo ked</w>
lo se</w>
li ez</w>
li es</w>
langu ages</w>
l i</w>
l friend</w>
l eurs</w>
j et
im pres
ic al</w>
hu m
ho sp
heal th</w>
gir lfriend</w>
g én
g â
fon c
fi re</w>
fi ed</w>
fer ai</w>
f lo
es ti
erreu r</w>
endro it</w>
en vir
en te</w>
en ir</w>
e g
désol ée</w>
donn ez</w>
dis cu
dev rions</w>
derni er</w>
dar k</w>
d ess
d el
d ate</w>
cr u
cr azy</w>
condu ire</w>
con v
con tri
con ten
con di
commenc é</w>
cher che</w>
ch aus
ch ap
cert ains</w>
cert ain</w>
c lu
c ked</w>
c is
c eux</w>
bicy cle</w>
be er</w>
b ab
app reci
apon ais</w>
any body</w>
an n
amou reux</w>
am é
ai rs</w>
ag ree</w>
T okyo</w>
I tal
ô le</w>
è ne</w>
y si
wri tten</w>
wh e
w er
voul ons</w>
vo ici</w>
ven us</w>
ven ue</w>
utilis er</w>
ty pe</w>
trou ble</w>
ti mi
thin ks</w>
ter re</w>
t ent</w>
sé curi
sécuri té</w>
suc re</w>
su sp
su s</w>
st ri
sleep ing</w>
si bili
shi rt</w>
s aying</w>
s and
ré union</w>
ré par
res se</w>
re tour
re fus
ra ther</w>
r eli
r as
pré par
probab ly</w>
pr on
pouv ais</w>
pos er</w>
play ing</w>
pers onnes</w>
pati ence</w>
p é
p ped</w>
ous ly</w>
n ear</w>
mo vie</w>
m é</w>
m auv
lun ch</w>
low ed</w>
list en</w>
li bre</w>
leav ing</w>
l è
l ou
l ater</w>
k in
iti é</w>
in di
im possible</w>
idi ot</w>
hun gr
hungr y</w>
hosp ital</w>
hom mes</w>
ho tel</w>
hal f</w>
gén ér
g enti
g ar</w>
fo re
f ine</w>
f avo
favo rite</w>
f av
f as
expéri ence</w>
ex plo
essay é</w>
ess aie</w>
ent y</w>
en voy
em ents</w>
eas ily</w>
e w</w>
e at
di pl
di e</w>
dev ant</w>
d ly</w>
d enti
cuis ine</w>
contri bu
conna ît</w>
com pris</w>
cl asse</w>
ci p
cho ix</w>
chem ise</w>
ch ats</w>
cau ght</w>
cap able</w>
c us
c ats</w>
bé bé</w>
bo ire</w>
bab y</w>
b â
b out</w>
b er
b and</w>
au to
arro g
arri ver</w>
ap pro
al so</w>
ac k
T erre</w>
M .</w>
E ar
Di eu</w>
Ch rist
A h</w>
î tre</w>
î te</w>
ë l</w>
étr anger</w>
ét o
équi pe</w>
él è
è tement</w>
è que</w>
â mes</w>
z z
y en</w>
wh ose</w>
wh at
was h</w>
vis it
v ê
v en</w>
us i
un k</w>
té lé</w>
ti cket</w>
th es</w>
ter noon</w>
tea m</w>
tax i</w>
ta king</w>
t rem
t ation</w>
sy m
su gar</w>
sto od</w>
st ayed</w>
spea king</w>
sou viens</w>
sou hai
sor te</w>
si te</w>
si ons</w>
ser ez</w>
saf e</w>
s pe
s it</w>
s car
s avait</w>
réf lé
réflé ch
ri ed</w>
res semble</w>
rencontr é</w>
regar d
re gre
re ali
radi o</w>
r endu</w>
r ain
probl ems</w>
pro pre</w>
pl eas
pl ain
per dre</w>
pens er</w>
par fois</w>
p es</w>
p as
o pened</w>
o bli
num éro</w>
mon th</w>
mist ake</w>
man qu
m ets</w>
m en</w>
m em
m am
li se</w>
lear ned</w>
le ast</w>
k fast</w>
k ey
k ept</w>
j e
it ted</w>
ir ai</w>
in ess</w>
in a</w>
im me
ill é</w>
il ement</w>
hô tel</w>
hô p
has n</w>
h at</w>
gr at
gar çons</w>
g er
fru it</w>
for got</w>
feel ing</w>
experi ence</w>
ex ist
et ely</w>
ent ôt</w>
em br
em barrass
em and</w>
ec tion</w>
déci dé</w>
dé c
dro it</w>
differ ent</w>
der ed</w>
d ge</w>
cu r
cour ant</w>
cour age</w>
cont ent</w>
confi ance</w>
conc entr
con st
con om
compl etely</w>
comm un
com puter</w>
co ol</w>
co at</w>
clo thes</w>
clo ck</w>
ci er</w>
cho ice</w>
char ge</w>
ch ant
c ô
c s</w>
c elle</w>
c ake</w>
c ad
brea kfast</w>
bo îte</w>
bo ys</w>
bi entôt</w>
b a
au rait</w>
atten d</w>
appreci ate</w>
ap pe
an tes</w>
amé li
all emand</w>
al ité</w>
ai lle</w>
af fai
acc us
ab solu
ab o
a p</w>
M r</w>
J ane</w>
Intern et</w>
Ger man</w>
G od</w>
Austr ali
A méri
étudi ants</w>
â tre</w>
â che</w>
wom en</w>
what ever</w>
w ro
wro te</w>
w ed</w>
vis ite</w>
viend ra</w>
vi ol
vi c
ver se</w>
veill é</w>
v ité</w>
v aut</w>
v al
u m</w>
té es</w>
trou ver
trav ers</w>
tou ch</w>
tom ber</w>
tionn aire</w>
ti es</w>
th y</w>
th day</w>
t at
t ab
sur pris</w>
su ite</w>
su gg
stupi d</w>
stu me</w>
str ong</w>
st op
st e
sor t</w>
smo ke</w>
sle pt</w>
sh ouldn</w>
senten ce</w>
secon d</w>
sci ence</w>
s te</w>
s qu
s mar
s li
s ai
ri re</w>
resp ec
res te</w>
re qu
re al</w>
r ar
pré sen
prof es
probab lement</w>
pri v
pres ent</w>
pre fer</w>
pr end</w>
pos te</w>
pois son</w>
pic ture</w>
ph ysi
per f
par viens</w>
par a
pap er</w>
pan ish</w>
p is
p ai
ordin ateur</w>
onn é</w>
om m
occup ée</w>
o s
o is
nom bre</w>
nee ded</w>
necess ary</w>
mon t
minu te</w>
mess age</w>
mar ry</w>
m oun
lu mi
li ked</w>
le gs</w>
l ine</w>
key s</w>
k o</w>
jour n
j ect</w>
invit ed</w>
in stitu
in side</w>
imag in
il o
hôp ital</w>
h y
h our</w>
h it</w>
h au
gro sse</w>
gro s</w>
gl asses</w>
gen re</w>
gen er
gar de</w>
g one</w>
fu rent</w>
fo ot
flow ers</w>
flo or</w>
fl eurs</w>
fam ili
fai sons</w>
fac ilement</w>
f our
exp li
ex er
esp agno
espagno l</w>
es prit</w>
emplo i</w>
ei ther</w>
ec k</w>
e f
dri ve</w>
dou ble</w>
donn er</w>
dis pose</w>
d ead</w>
cu se</w>
compl ètement</w>
compl e
com prends</w>
co stume</w>
co p
co ok</w>
cle an</w>
ci eux</w>
cho is
cher ch
chang é</w>
chang ed</w>
ch anc
c aus
c ase</w>
bu t
bro ke</w>
bo x</w>
bl an
bir thday</w>
beg an</w>
b ag
au tom
at ely</w>
arti cle</w>
arrê té</w>
appel é</w>
améli or
all ait</w>
ag ent</w>
af ternoon</w>
admi re</w>
ad vis
ac ked</w>
ab and
a kes</w>
S panish</w>
S m
N ew</w>
Ear th</w>
A r
œ il</w>
ê tres</w>
ér er</w>
ég alement</w>
é v
é cr
è de</w>
z ar
y ons</w>
whe ther</w>
wer en</w>
wal ked</w>
w in</w>
w ear
wear ing</w>
vo lon
vin g
vi de
veu lent</w>
vers aire</w>
v end
usi eurs</w>
us band</w>
ur g
tr a</w>
ti f</w>
ti ce</w>
th er
termin é</w>
tem p
tal ked</w>
tai lle</w>
ta kes</w>
ta ken</w>
t ex
t est</w>
suppos ed</w>
su n</w>
star s</w>
stand ing</w>
st re
st at
spo ke</w>
so leil</w>
so l</w>
sim ple</w>
sho es</w>
senten ces</w>
sel on</w>
see m</w>
se a</w>
sav ent</w>
sa c</w>
s pr
s ement</w>
ré sou
ré p
run ning</w>
ri ver</w>
ri de</w>
resp ect</w>
ren trer</w>
re voir</w>
re ti
rap id
pré si
pré sent
prom is
produ it</w>
pren ez</w>
pr ête</w>
pos sibili
play ed</w>
pl usieurs</w>
pi re</w>
pen sive</w>
p at
oun ds</w>
or k</w>
oc cas
obli g
o w
nom b
nomb reux</w>
nei ge</w>
nee ds</w>
nat ure</w>
nat ur
n et
mo itié</w>
mo indre</w>
mis sion</w>
mil li
mi gn
meill eu
mari er</w>
mar cher</w>
man teau</w>
man che</w>
m as</w>
low ing</w>
lo ved</w>
li br
lear ning</w>
l and</w>
k ill</w>
k ids</w>
j aponais</w>
iv ent</w>
it es</w>
inté ri
interes ting</w>
in no
imme diat
immediat ely</w>
heav y</w>
hap pen
h usband</w>
h onn
h ing</w>
gâ teau</w>
gl ass</w>
gi ven</w>
gh ts</w>
g ne</w>
g au
g are</w>
g an
fr ont</w>
for ward</w>
fer a</w>
fem mes</w>
feel ings</w>
fac t</w>
f ie</w>
f asse</w>
exam en</w>
ex pensive</w>
ex cuse</w>
ev ening</w>
et y</w>
et tre</w>
er t</w>
ent ly</w>
enjo y</w>
em an</w>
eat en</w>
e ating</w>
e a</w>
dé sor
dé couver
dor t</w>
discu ter</w>
deven u</w>
des sus</w>
danger ous</w>
d eal</w>
cô té</w>
cu te</w>
cour se</w>
cou v
cor ri
cont in
conse ils</w>
comp li
comp ag
comm ence</w>
cl és</w>
ci el</w>
chap eau</w>
cat ch</w>
c ks</w>
c anc
br ing</w>
bou te
bli oth
bless é</w>
bi zar
bi blioth
at ti
arri ère</w>
ar me</w>
anni versaire</w>
anim al</w>
an ti
all ée</w>
ag it</w>
ad resse</w>
ac h</w>
ab sent</w>
Y ork</w>
U ni
Sm ith</w>
S t
No ël</w>
C on
étudi er</w>
écou ter</w>
é vit
é tions</w>
é cu
é cl
É tats</w>
z o
zo o</w>
x i
wri ting</w>
wor ked</w>
won der
vou lo
voulo ir</w>
voitu res</w>
vie il</w>
vi ère</w>
vi es</w>
vi dé
v is</w>
us ing</w>
um br
umbr el
tu er</w>
tro du
tre z</w>
trav er
tom b
thé âtre</w>
thé ori
théori e</w>
the ory</w>
th re
terri ble</w>
tea ch</w>
t ree</w>
t ears</w>
suff is
succ ès</w>
su per
su ici
stupi de</w>
stu d
stud ying</w>
str ange</w>
st es</w>
st airs</w>
spea ks</w>
sor t
sor s</w>
som me
somme il</w>
smar t</w>
sig ni
si ez</w>
shor t</w>
sh all</w>
ser vice</w>
senti ments</w>
see ing</w>
s ound</w>
s now</w>
s end</w>
répon dre</w>
ro ck</w>
ri vière</w>
respon s
reas on</w>
reali ze</w>
re venir</w>
re g
re co
rapid ement</w>
ra se</w>
r on
r est</w>
qui et</w>
qu ick
quick ly</w>
préfér ée</w>
préf ère</w>
produ c
pro t
pr acti
pou s
port ait</w>
plu part</w>
pleu rer</w>
pl eut</w>
pl ays</w>
pl ain</w>
pl ai
pl ac
pie ds</w>
pi ed</w>
ph rase</w>
pe in
pauv re</w>
part i</w>
par k</w>
p en</w>
out side</w>
our ces</w>
ori g
on er</w>
on ed</w>
occas ion</w>
o per
no v
nei gh
n ation
mus ici
mu l
moun tain</w>
mi li
mauv aise</w>
mar i</w>
man u
man que</w>
magaz ine</w>
m as
lun ettes</w>
lumi ère</w>
libr ary</w>
l is</w>
l in
l ea
l am
k ni
journ al</w>
jo in</w>
jam bes</w>
j eu</w>
ir es</w>
institu teur</w>
inno cent</w>
in vol
in trodu
in o
imag ine</w>
id enti
i m</w>
i dent</w>
hor ri
ho od</w>
hi story</w>
hi gh
heu re
gu ys</w>
gu es</w>
go es</w>
gar d
g ing</w>
g ets</w>
fort une</w>
foot ball</w>
fin ish</w>
fer ais</w>
fam ous</w>
fai sait</w>
f un
f re
f ou</w>
ey e</w>
exer ci
ex ist</w>
eu sement</w>
ent end
enseign ant</w>
embr ass
e il</w>
désor mais</w>
dé si
dé couv
dé cl
dr unk</w>
dorm i</w>
dis cours</w>
dipl om
di v
dev oir</w>
des tin
danger eux</w>
cr ying</w>
cour ag
cou s
concer t</w>
commenc er</w>
comm and
co pi
clo sed</w>
cl é</w>
chaus sures</w>
ch eck</w>
ch ante</w>
ch anger</w>
car te</w>
c ard</w>
c and
buil ding</w>
bro ken</w>
bo is</w>
biblioth èque</w>
beg in
bal le</w>
b ons</w>
b ill</w>
ay ez</w>
auto ri
as p
arri ver
appoin ted</w>
anc ed</w>
an to</w>
ai ses</w>
af faire</w>
ad v
ad dress</w>
ac ro
ab or
U nis</w>
U n
U S
S un
M i
L in
Euro pe</w>
Christ mas</w>
C an
A ll
win ter</w>
wee k
week end</w>
w ich</w>
w el
w ear</w>
voy ez</w>
ving t</w>
vie w</w>
vie ille</w>
ver n
v re</w>
v ont</w>
v ement</w>
v ali
usu ally</w>
usu al</w>
us hed</w>
un cle</w>
umbrel la</w>
trem bl
trans l
tradu c
tr aff
traff ic</w>
to il
tion ary</w>
ti s
ti en</w>
ti di
ten u</w>
tel ev
telev ision</w>
t wi
sur viv
suffis amment</w>
su it</w>
st om
st ed</w>
spr ing</w>
sp ir
sp i
some where</w>
sol ve</w>
soci été</w>
so oner</w>
so li
so i
sin gle</w>
sil en
si è
si ght</w>
sho p</w>
ser vi
secre ts</w>
sau f</w>
sand wich</w>
s port</w>
s por
réus si</w>
résou dre</w>
ré alis
ru m
ri bu
rend ez</w>
ren tr
ren contre</w>
regar dé</w>
rec ei
re jo
ras es</w>
ra con
r appeler</w>
r an</w>
quo tidi
quel les</w>
quel conque</w>
pron on
proch aine</w>
pro ve</w>
pro jet</w>
prin temps</w>
pri ce</w>
pr un
pr ou
pr ati
pos t</w>
pos ition</w>
popul ation</w>
popul ar</w>
po ids</w>
pleas ed</w>
ple in</w>
pl y</w>
pl es</w>
photo s</w>
ph rases</w>
para pluie</w>
par ed</w>
pap ier</w>
p a
ou x</w>
or m
or gan
or able</w>
onn er</w>
on cle</w>
ol der</w>
o we</w>
net to
ner vous</w>
n one</w>
n ez</w>
n eu
mor c
mor al</w>
mont agne</w>
mon trer</w>
meilleu re</w>
me dic
me an</w>
mari é</w>
mar ket</w>
mal adi
m our
m eu
m es
lev é</w>
le quel</w>
l y
l o</w>
l ap
kis s</w>
k er</w>
j ar
is su
intéri eur</w>
inté rê
in struc
in qui
in ju
in ed</w>
imp li
il à</w>
ig ner</w>
i ze</w>
i des</w>
hu it</w>
hom as</w>
ho ld</w>
hi ver</w>
her self</w>
gu erre</w>
grou pe</w>
gre at
gr an
go tten</w>
gi ves</w>
gen i
g é
g un</w>
g ni
g es</w>
g am
fu ll</w>
fu ck</w>
fr on
fort un
for table</w>
figu red</w>
figu re</w>
fic ation</w>
fau l
fall u</w>
f at</w>
f all</w>
exp ect</w>
exist ence</w>
eu ses</w>
et h</w>
esp ér
es ses</w>
er ve</w>
er n
er ing</w>
entr ée</w>
ent ed</w>
enn es</w>
en se</w>
em prun
eff ec
ear th</w>
dét ermin
du e</w>
dri ving</w>
do gs</w>
dist ance</w>
dis co
direc tion</w>
dic tionnaire</w>
dic tionary</w>
di manche</w>
deven ir</w>
demand er</w>
cu p</w>
cor respon
consi der</w>
conna ître</w>
conn u</w>
conn ais
con cl
comple te</w>
comm en
cin é
chan son</w>
car ry</w>
cap it
cad eau</w>
c les</w>
c ents</w>
c ach
br u
bo y
blo od</w>
bi ke</w>
ba g</w>
b u</w>
b our
b lu
b le
b ill
b et</w>
b el
av enir</w>
av ance</w>
au tour</w>
au g
att e
at a</w>
ar ds</w>
ar ch
appel ez</w>
apo logi
ap er</w>
ang es</w>
an ks</w>
an ci
am ies</w>
am bi
all és</w>
al lowed</w>
al ity</w>
al es</w>
ai r
ai l</w>
ag re
affai res</w>
af in</w>
advis ed</w>
actu ally</w>
ac i
ab road</w>
ab ili
a î
T homas</w>
Q u
O K</w>
J u
F ri
E x
D é
&apos; clock</w>
œu fs</w>
û t</w>
étr ange</w>
éto iles</w>
ét at</w>
éren ce</w>
épou ser</w>
éc u</w>
é conom
y o
y ed</w>
wor th</w>
wor se</w>
vê tem
vêtem ents</w>
voy ager</w>
voud riez</w>
vo is
vo ilà</w>
viv ent</w>
vis age</w>
viend rai</w>
vidé o</w>
vide o</w>
vi de</w>
vern ment</w>
vac ation</w>
v écu</w>
v é
v eau</w>
v ase</w>
under stood</w>
twi ce</w>
tu é</w>
trom p
travaill é</w>
trav el</w>
tran qu
tr ust</w>
tr on</w>
tom bé</w>
tionn é</w>
ti ment</w>
thir ty</w>
ter ed</w>
te aux</w>
sur prise</w>
sur ance</w>
sup er</w>
suiv re</w>
st y
st ing</w>
spo ken</w>
spe ec
speec h</w>
sp ace</w>
som met</w>
so lution</w>
so in</w>
so f
sig ne</w>
seri ous</w>
ser ont</w>
ser as</w>
se at</w>
satis fied</w>
san g</w>
s ong</w>
s low</w>
rê tez</w>
répon se</w>
ro be</w>
ri es</w>
res ul
res té</w>
re çu</w>
re turn</w>
re l</w>
re fu
re cherche</w>
rais ons</w>
rai ent</w>
r ons</w>
r i</w>
r appelle</w>
qui conque</w>
qu it</w>
qu ement</w>
qu ar
pun ctu
prê ter</w>
prési dent</w>
préfér é</w>
pré sent</w>
propos ition</w>
pro pr
propr es</w>
pro che</w>
prin c
press ed</w>
pre pared</w>
pos t
port un
por té</w>
por tes</w>
pon ctu
pom mes</w>
poli ti
po ol</w>
po n</w>
pleu voir</w>
pl ais
pis c
pisc ine</w>
pie ce</w>
pi zz
ph ilo
philo so
pers on
per su
per mission</w>
pay é</w>
parl ent</w>
par c</w>
p reu
p ends</w>
p au
pau se</w>
p agne</w>
ouver t</w>
oubli e</w>
orig in
op portun
on y</w>
on g
on de</w>
on d</w>
o s</w>
o king</w>
o d
nu e</w>
ni e</w>
n on
n ement</w>
mou rir</w>
mo yen</w>
mo ved</w>
mo ve</w>
mist akes</w>
mis sed</w>
mi enne</w>
met tez</w>
man quer</w>
m enti
m ate</w>
lè ve</w>
lun di</w>
lu ck</w>
lo ts</w>
li k
li er</w>
les son</w>
le çon</w>
le ep</w>
la c</w>
l ly</w>
k it
kit ch
kitch en</w>
k il
jus tice</w>
jeu nes</w>
jar di
jardi n</w>
j eux</w>
is i
invol ved</w>
intéress ant</w>
in ven
in sul
in ese</w>
in cre
i an</w>
hé ro
hy po
hum eur</w>
hu man</w>
hon te</w>
har dly</w>
ham ed</w>
h aut</w>
gu y</w>
gu it
go vernment</w>
gau che</w>
gag ner</w>
g res
g ent
fu lly</w>
fri end
for m</w>
fol low</w>
fin ally</w>
fin alement</w>
fer me</w>
f is
f eu
f ar
exp ected</w>
ex iste</w>
eu m</w>
erreu rs</w>
erg y</w>
envoy é</w>
enn em
end ed</w>
en em
en ed</w>
em ment</w>
eg gs</w>
ee p</w>
ear th
découver t</w>
déc ision</w>
dé pend</w>
du ring</w>
du re</w>
du c
dre am
doc teur</w>
div or
dist ribu
dis appointed</w>
dev o
det ermin
dan ser</w>
d res</w>
d om</w>
cro it</w>
cri me</w>
cour t</w>
coun t</w>
cou pe</w>
correc tement</w>
conv ain
contin u
consi dered</w>
conse il</w>
condi tion</w>
compl ain
com man
com fortable</w>
co oking</w>
co in</w>
chois ir</w>
chan ter</w>
ch on</w>
cert ain
car s</w>
canc er</w>
c y</w>
c ry</w>
bâ timent</w>
bus iness</w>
bre ad</w>
br û
bat eau</w>
b ar</w>
b ais
bais er</w>
au th
attrap é</w>
att ends</w>
as su
as sist
as leep</w>
as hamed</w>
arrê te</w>
appe ar
app le</w>
app ed</w>
ap parti
ann ées</w>
anim aux</w>
an nu
am a</w>
al tern
al ong</w>
al lu
al ie</w>
aim é</w>
aim ait</w>
ai rement</w>
ai l
acro ss</w>
ach es</w>
acc used</w>
a h</w>
Un ited</w>
Sun day</w>
S al
R e
Mon day</w>
M o
Lin da</w>
L on
K ate</w>
J im</w>
Ch inese</w>
Bo b</w>
B ri
Australi a</w>
Austr alie</w>
Ar rêtez</w>
Americ a</w>
All em
20 1
œu f</w>
étudi ant</w>
ét e
ét age</w>
ér ent</w>
éni ent</w>
én or
én erg
él ec
écu reu
éch ou
é qu
é lic
é go
è le</w>
è g
â le</w>
y é</w>
windo ws</w>
wi se</w>
wh ite</w>
we ight</w>
we d
war ned</w>
w sp
wsp aper</w>
vrai e</w>
vou dr
vo lution</w>
vis ited</w>
vi ennent</w>
vers ation</w>
vend re
vendre di</w>
ve ille</w>
ve get
v endre</w>
v el
uti le</w>
us ion</w>
us an</w>
up stairs</w>
un fortun
unfortun ately</w>
trav el
tranqu ille</w>
tou che</w>
timi de</w>
ti n</w>
thir st
thirst y</w>
th ous
th em
th anks</w>
ter ai</w>
te eth</w>
te en</w>
te a</w>
ta le</w>
t âche</w>
t un
t ask</w>
t all</w>
t al</w>
t ais</w>
t aire</w>
séri eux</w>
sé par
sym bo
susp ect</w>
succ ess</w>
succ ee
succee ded</w>
squ ir
sp é
sp ent</w>
son ge</w>
sol di
sol d
sk y</w>
sil ent</w>
sig n</w>
si on
sho wer</w>
shi p</w>
sh y</w>
sh ut</w>
sh ar
seri ously</w>
sem bles</w>
sem aines</w>
se pt</w>
scientifi que</w>
scar ed</w>
sal le</w>
sa che</w>
s our
s ounds</w>
s is</w>
s ever
s cen
s age</w>
réfléch ir</w>
ré sul
ré si
ré s</w>
ru de</w>
rom an</w>
ri t</w>
retour ner</w>
respons able</w>
respon sible</w>
reco gni
recei ved</w>
re venu</w>
re port</w>
re pas</w>
re mar
re ach</w>
rap port</w>
rain ing</w>
r us
r ue</w>
r ont</w>
r hu
r ang</w>
r ab
qu ée</w>
pê ché</w>
puis s
présen ter</w>
prom en
produ ire</w>
pr ouv
pr ennent</w>
pos s
port able</w>
pom me</w>
po l
po ir</w>
pl enty</w>
pl age</w>
per te</w>
pass ed</w>
parti es</w>
parl ait</w>
par tout</w>
par avant</w>
pain ting</w>
pain ted</w>
pa tron</w>
p éri
p én
p y
p us</w>
p ass</w>
p ale</w>
p aid</w>
p age</w>
ouver nement</w>
ouv rir</w>
out ons</w>
or ange</w>
op ér
o y
o me</w>
o li
nov el</w>
ne wspaper</w>
natur al</w>
n s</w>
n ers</w>
n am
n age</w>
n a</w>
morc eau</w>
mon di
mo r</w>
mo der
min im
mi se</w>
mer veill
medic ine</w>
me ans</w>
mati ques</w>
mari age</w>
mar re</w>
mar ch
man ager</w>
mam an</w>
m ée</w>
m ille</w>
m el
lu m
lo ves</w>
lo ss</w>
lo r</w>
list ening</w>
lik ely</w>
li èrement</w>
let ters</w>
let erre</w>
lav er</w>
laugh ing</w>
lar mes</w>
la w</w>
l ors</w>
l ever</w>
l ar</w>
ju g
jou é</w>
jo lie</w>
it er</w>
is s
is me</w>
ir a</w>
intérê t</w>
intelli g
inju red</w>
in f
in conv
inconv énient</w>
impres sion</w>
impres si
ill er</w>
il la</w>
il ing</w>
il ed</w>
ig ne</w>
hur ried</w>
hel ped</w>
hel d</w>
has ard</w>
h â
h eur</w>
h ea
great est</w>
gr ap
ge ons</w>
gard en</w>
gar s</w>
gar age</w>
g row</w>
g ouvernement</w>
g leterre</w>
g ed</w>
g agne</w>
fun ny</w>
fu r
for me</w>
for give</w>
for c
fol lowing</w>
fis hing</w>
fi x</w>
fi x
fer mer</w>
fen êtres</w>
fe et</w>
famili ar</w>
fai te</w>
f illed</w>
expli quer</w>
ex plain</w>
ex ig
ex em
ex cel
et er</w>
esp ace</w>
es poir</w>
es cap
ennu is</w>
ennem i</w>
enem y</w>
end ing</w>
en ergy</w>
embrass er</w>
el ess</w>
eff et</w>
ec s</w>
earth qu
e qu
dét ails</w>
découv rir</w>
dé tru
dé s
dé part</w>
dé li
dé f
dé but</w>
dres sed</w>
dr a
dou b
donn a</w>
do ivent</w>
dispos ez</w>
dis ent</w>
dis cus
differ ence</w>
diff érent</w>
di cu
dev int</w>
det ails</w>
destin ation</w>
demand a</w>
dem i</w>
dec ision</w>
de pends</w>
dd en</w>
d oul
d ness</w>
d am
d ad</w>
cus ez</w>
cul ture</w>
cuis in
cu stom
cu e</w>
cro y
cro s
cri ti
cri min
cr u</w>
cor ps</w>
copi es</w>
cop ine</w>
convain c
conten te</w>
consi dér
con versation</w>
con struc
con stru
compag nie</w>
com pos
com port
com mon</w>
co sts</w>
cl ou
ck ets</w>
ci ble</w>
cho ose</w>
ch ur
ch ino
cass é</w>
c t</w>
c as</w>
bu tt
bu l
bro wn</w>
bri ll
br ought</w>
boy friend</w>
boute ille</w>
bo ttle</w>
blu e</w>
bizar re</w>
bi te</w>
begin ning</w>
b un
b onnes</w>
b ly</w>
b en
b each</w>
b att
aw ake</w>
aw a</w>
avo id</w>
av is</w>
av er
autom ne</w>
aug ment
au riez</w>
au paravant</w>
ati ves</w>
at ure</w>
as si
as se
arriv ée</w>
ar ea</w>
ar bre</w>
apparti ent</w>
anim als</w>
and s</w>
anc y</w>
amélior er</w>
amou reuse</w>
all ais</w>
aim ez</w>
ai mer</w>
ai ment</w>
ai ll
ai es</w>
ai der
ag ue</w>
ag ed</w>
accor ding</w>
ac t
ab sur
a x
T u
S usan</w>
R us
J e
G re
Fri day</w>
Fr an
Ex cusez</w>
Ch ar
C o
An gleterre</w>
Améri que</w>
5 0</w>
1 1</w>
0 00</w>
ô tre</w>
ô mes</w>
évit er</w>
étudi e</w>
étr ang
énerg ie</w>
él ev
ég lise</w>
écr as
éch ec</w>
èg les</w>
è se</w>
yo to</w>
y e</w>
x ante</w>
wor st</w>
wor ried</w>
wonder ful</w>
wo re</w>
wee ks</w>
wed ding</w>
wat ched</w>
was te</w>
war m</w>
w yer</w>
w ar</w>
w ake</w>
vo lun
vo ie</w>
viv ant</w>
visit er</w>
vis i
vir us</w>
vi ve</w>
ver ti
ver ed</w>
ven ait</w>
v ues</w>
v an
us ions</w>
us ement</w>
up set</w>
univers ité</w>
univers ity</w>
uni verse</w>
uni vers</w>
u g
tun nel</w>
tro l</w>
tri es</w>
tre es</w>
tre ated</w>
trans late</w>
tr ente</w>
tr adi
tr a
tou ched</w>
to ys</w>
ti re</w>
ti onne</w>
ti e</w>
thre w</w>
the ater</w>
th é</w>
ter ais</w>
tend ed</w>
ten ez</w>
tel y</w>
tel e
tele phone</w>
te ch
tal ks</w>
tab l
t ons</w>
t asse</w>
t aller</w>
t ait</w>
sym p
sw e
sup pl
suppl é
stre et</w>
stop ped</w>
ste m</w>
stat ue</w>
star ting</w>
spé ci
spec i
sp agne</w>
souv enir</w>
sou l</w>
sou ff
sou ci</w>
sor tes</w>
sol u</w>
soi xante</w>
so yons</w>
so ld</w>
so if</w>
so i</w>
sk i
sin gs</w>
sin ger</w>
si ze</w>
sh eep</w>
sever al</w>
seu ls</w>
ser ved</w>
sen si
sembl ez</w>
sel ves</w>
se par
se as
scen e</w>
s oul
s it
s ell</w>
s ays</w>
répar er</w>
ré veillé</w>
ré s
ré jou
réjou is</w>
ré c
run s</w>
ru les</w>
ro r</w>
ro b
ri ty</w>
ri er</w>
ri dicu
rhu me</w>
rencontr ée</w>
reli gi
regre t</w>
reg ard</w>
reas ons</w>
re mer
re fl
re faire</w>
re f
ref used</w>
re connaiss
rar ement</w>
rac le</w>
r ôle</w>
r ègles</w>
r is</w>
r ends</w>
r ely</w>
r av
r as</w>
r and
r ag
quit ter</w>
py ram
punctu al</w>
prépar er</w>
pru den
prot ect</w>
promis es</w>
profes sion
prob able</w>
pro té
pro per
pro ject</w>
prin cip
pri son</w>
pri ces</w>
prend rai</w>
pr êtes</w>
pr ess</w>
pou le</w>
poli tique</w>
pois on</w>
po wer</w>
po t</w>
po li</w>
plan ète</w>
plan et</w>
plai sir</w>
pl ans</w>
pizz a</w>
pic tures</w>
pic k
pi erre</w>
ph ones</w>
peti tes</w>
pers onn
perf ect</w>
per mis</w>
per hap
perhap s</w>
pass ée</w>
par o
par les</w>
pap a</w>
p é</w>
p âle</w>
p sy
p ping</w>
p in</w>
p air</w>
ouver te</w>
ori ty</w>
or anges</w>
op tions</w>
onn ement</w>
onn a</w>
om age</w>
off en
occup er</w>
occu pe</w>
o re</w>
o pen
o log
o de</w>
nu lle</w>
nouv el</w>
nor mal</w>
nom bre
nombre uses</w>
no te</w>
ni que</w>
netto yer</w>
ner veux</w>
ne ar
n et</w>
n ations</w>
n ag
mé tr
my st
mus ée</w>
mus eum</w>
mu r
mon trez</w>
mon ths</w>
mon ter</w>
mo vies</w>
mo on</w>
minim um</w>
mi racle</w>
mi le</w>
mes ure</w>
mem ory</w>
me ant</w>
mat ters</w>
maladi e</w>
mal heure
malheure usement</w>
mai l</w>
ma thé
ma j
ma ch
m outons</w>
m om</w>
m itted</w>
lé gu
lo ws</w>
lo i</w>
lo c
lis te</w>
lic ense</w>
li st</w>
leav es</w>
le g</w>
le g
laugh ed</w>
la wyer</w>
l our
l end</w>
l eman</w>
l azy</w>
l ake</w>
kni fe</w>
kis sed</w>
kin ds</w>
kee ps</w>
k ers</w>
k a</w>
jou ets</w>
issu e</w>
intéress é</w>
inter nation
instruc tions</w>
inqui ète</w>
incre as
in vité</w>
in v
in géni
in flu
import antes</w>
imagin ation</w>
imag iner</w>
im pressed</w>
im age</w>
ill s</w>
ill ing</w>
il li
ig n</w>
ici ous</w>
ic ken</w>
ic k</w>
i dé
hypo th
hun d
hund red</w>
hum our</w>
horri ble</w>
honn ête</w>
hon est</w>
hom e
home work</w>
hi de</w>
heal thy</w>
happen ing</w>
hand le</w>
hab it
h ang
gu il
gu er
gro wing</w>
grat ul
grand mother</w>
grand father</w>
gran des</w>
gr ound</w>
go û
gl and</w>
gi ving</w>
genti l</w>
gent leman</w>
gar der</w>
gam es</w>
gag né</w>
g érer</w>
g ho
fu ton</w>
fru its</w>
fr équ
fr ères</w>
fr omage</w>
fr ay
four n
for ced</w>
for ce</w>
fo ods</w>
fi ght</w>
feu illes</w>
fau te</w>
fas ter</w>
fai led</w>
f ly</w>
f ear</w>
exerci se</w>
exc uses</w>
exc us
eu s</w>
eu ro
eu r
eu e</w>
es c
er y</w>
er ait</w>
entr er</w>
ent ends</w>
enf ance</w>
end orm
en ter</w>
en gag
embarrass ed</w>
em pêcher</w>
em porter</w>
em p
el ls</w>
ei ght</w>
ef fray
ec te</w>
eb all</w>
e er</w>
e ed</w>
décl ar
déci da</w>
du rant</w>
dro its</w>
dro ite</w>
drin king</w>
dri ver</w>
dre am</w>
dr ank</w>
dr a</w>
dou che</w>
dis pu
dis par
dis ait</w>
direc t</w>
difficul tés</w>
di sh
di am
di a</w>
devo irs</w>
dev in
dev ient</w>
des c
dd le</w>
d om
d hood</w>
d ence</w>
d el</w>
cuis iner</w>
cu re</w>
cru el</w>
cro w
coû te</w>
coû t</w>
cous in</w>
coun tries</w>
cou rir</w>
cou cher</w>
corri ger</w>
contr at</w>
construc tion</w>
consi dé
conf is
condu is
con vin
con science</w>
con sci
con sac
con gratul
comp ter</w>
commen ça</w>
comm ent
com mer
co ws</w>
cl ass
cl airement</w>
ciné ma</w>
chur ch</w>
chil dhood</w>
chi ens</w>
cher cher</w>
chanc eux</w>
ch u
ch icken</w>
ch ers</w>
ch all
cert aines</w>
cert aine</w>
cel e
cal me</w>
c it
c entre</w>
c ache</w>
bur st</w>
bo ther</w>
bo it</w>
bo at</w>
blan c</w>
bicy cl
be l</w>
be d
bat tre</w>
ban an
b s</w>
b right</w>
b orrow</w>
b it
b at</w>
b al</w>
b ack
au tre
au rions</w>
au l</w>
ation al</w>
ati n</w>
at or</w>
at eurs</w>
asse oir</w>
arrog ant</w>
arriv ent</w>
arch it
ar bres</w>
appar eil</w>
apologi ze</w>
ang les</w>
ang le</w>
anc é</w>
an xi
an u
an ak
am p</w>
ali ve</w>
al ph
al im
al ent
al cool</w>
agre ed</w>
ag gres
ad mitted</w>
ad mis</w>
ad er</w>
ad ap
ad a</w>
aci fi
accus é</w>
accep ter</w>
accep t</w>
acc ent</w>
ac y</w>
ac tive</w>
ac tion</w>
ac ted</w>
absolu ment</w>
abo ve</w>
a qu
a jou
a b</w>
a .
Y ou
US A</w>
T ur
St ates</w>
S u
S pain</w>
S o
S h
Rus si
P ro
P aul</w>
N ations</w>
N ancy</w>
M at
K yoto</w>
H o
Ger many</w>
En gland</w>
E spagne</w>
E s
Can ada</w>
Améri c
Americ ans</w>
Allem agne</w>
A k
201 3</w>
19 8
19 7
éto ile</w>
ét er</w>
ét ang</w>
ér é</w>
énor me</w>
élè ves</w>
élè bre</w>
él u</w>
ég al</w>
écureu ils</w>
écr is</w>
éch app
é vi
é veillé</w>
é puis
é lo
è vre</w>
è tes</w>
è ce</w>
ç o
â ce</w>
y th
y enne</w>
x im
with in</w>
wh i
wel come</w>
we ir
wal ks</w>
wai ted</w>
w n
w illing</w>
w ears</w>
voul u</w>
voudr ait</w>
volun te
volon té</w>
vois ins</w>
vo it</w>
vis ions</w>
vi ons</w>
vi enne</w>
ver rai</w>
ven ez</w>
vel op
v us</w>
v endu</w>
v al</w>
v aches</w>
us eful</w>
urg ence</w>
uni que</w>
u pon</w>
tu r</w>
tu m
tum n</w>
tu de</w>
tru ck</w>
travel ing</w>
trai té</w>
tradu ire</w>
tou cher</w>
tor t</w>
tomb ée</w>
toil et</w>
to tal</w>
to tal
total ement</w>
tis h</w>
ti z
ti ens</w>
th row</w>
th ough</w>
th ers</w>
terri bly</w>
ter ie</w>
ter a</w>
tel ls</w>
tech no
tea ching</w>
tax es</w>
tal ent</w>
tabl eau</w>
t ory</w>
t ment</w>
t eurs</w>
t es
t ap
symp ath
sy stem</w>
supplé ment
sup port</w>
sup por
suiv i</w>
suici dé</w>
suff it</w>
succ eed</w>
sub ject</w>
su it
sty lo</w>
stop ping</w>
sto ries</w>
st ate</w>
st ar</w>
squir rel
squirrel s</w>
souhai te</w>
sou tien</w>
sou p
sou d
sou ci
sorti e</w>
some body</w>
soldi ers</w>
sold ats</w>
so ir
soir ée</w>
so c
soc cer</w>
sm ells</w>
sm aller</w>
sleep y</w>
sk ir
sk in</w>
sin ging</w>
silen cieux</w>
signi fie</w>
si enne</w>
sh ed</w>
sh are</w>
sh a
serv i</w>
ser ve</w>
senti r</w>
sent i</w>
sent ez</w>
sel ling</w>
sec r
se l</w>
se ar
scientifi c</w>
sau v
satis fait</w>
sand wi
sal t</w>
sal aire</w>
sai sir</w>
sa le</w>
s no
s mile</w>
s low
s even</w>
s cre
s cr
s che
sche du
s avons</w>
s at</w>
résul tats</w>
répon du</w>
réfléch i</w>
réalis er</w>
ré solu</w>
ré gu
ré es</w>
ré ellement</w>
ré du
rum eur</w>
ro se</w>
ri se</w>
ri d</w>
ri ches</w>
ri ce</w>
ri c</w>
reu r</w>
resul ts</w>
rest ée</w>
ress ources</w>
respec ter</w>
res ted</w>
rencontr és</w>
remer cier</w>
rem ède</w>
rem pl
rejo indre</w>
regard ez</w>
refu se</w>
recogni ze</w>
re turned</w>
re tour</w>
re tar
re pai
re gu
re comm
rar ely</w>
ra z
ra ce</w>
r ound</w>
r ay
r ains</w>
r age</w>
quit té</w>
qu in
qu ences</w>
pu zz
pu r
prê ts</w>
pré venu</w>
prou d</w>
propos al</w>
prom ettre</w>
prom esses</w>
prom esse</w>
pro pri
pri ses</w>
preu ve</w>
pres sion</w>
pres ident</w>
possibili té</w>
pos é</w>
pos ter</w>
port ée</w>
popul aires</w>
popul aire</w>
pon d</w>
poli c
polic eman</w>
pol lution</w>
po t
po e
po che</w>
pleu v
play ers</w>
pl u</w>
pl ait</w>
pick po
pi que</w>
pi gg
pigg y</w>
pi geons</w>
physi cal</w>
peu ple</w>
peti ts</w>
perf ec
per anto</w>
pay ing</w>
pass ez</w>
pas se
parti cu
par la</w>
par ked</w>
par ie</w>
par fait</w>
p ushed</w>
p ush</w>
p li
p ag
p ack</w>
ow es</w>
ouv rit</w>
ouv rez</w>
oun ded</w>
oun ce</w>
oubli ez</w>
ou rite</w>
ordin aire</w>
or o
or ge</w>
or d</w>
opportun ity</w>
on ique</w>
omm age</w>
om i</w>
ois eau</w>
off er</w>
occup és</w>
objec tive</w>
objec tif</w>
o re
non sense</w>
ni veau</w>
neu f</w>
neigh b
n itu
n ent</w>
n av
n aiss
n a
métr o</w>
mé dic
mé di
mé d
mon tr
mon ie</w>
mo od</w>
mo ire</w>
mign onne</w>
mi en</w>
meu bles</w>
men songe</w>
me an
mati ère</w>
mathé matiques</w>
mat h</w>
mat ch</w>
mari és</w>
mar teau</w>
mar r
magaz ines</w>
mach ine</w>
m ét
m ic
m i</w>
m ed</w>
m eal</w>
m ad</w>
lé g
lon gues</w>
lon ely</w>
lo sing</w>
lo cal</w>
list ened</w>
lic ation</w>
li n</w>
li gn
li ed</w>
li ber
let tres</w>
lear ly</w>
l ines</w>
l and
kin dness</w>
ju m
jo li</w>
jam be</w>
inven tion</w>
inter est</w>
inter dit</w>
indi quer</w>
in ées</w>
in ée</w>
in te</w>
in sist
in for
in dé
in du
impressi onn
import ante</w>
im prove</w>
im patient</w>
ill ness</w>
id ence</w>
ici al</w>
ic ation</w>
i rez</w>
i est</w>
héro s</w>
hâ te</w>
hu mili
hu ge</w>
ho li
ho le</w>
hi ding</w>
hel ps</w>
hea d
hau sted</w>
har der</w>
happen s</w>
ham mer</w>
h i</w>
génér ation</w>
gu ide</w>
gu ard</w>
gro s
grat u
grand s</w>
gr é</w>
gr âce</w>
gr am
go ods</w>
go ld</w>
go l
gener ation</w>
ge a</w>
g éri
g ri
g née</w>
g lo
g ath
g al
fu tur</w>
fu me</w>
fro ide</w>
friend ly</w>
fran ch
fr ais</w>
fou le</w>
fore ver</w>
for te</w>
fonc tionne</w>
fon d
fol lowed</w>
fo ol</w>
fo lle</w>
fo i</w>
flow er</w>
fir m</w>
fin ite</w>
fic es</w>
fi é</w>
fi red</w>
fer mé</w>
fer iez</w>
fav ourite</w>
faul t</w>
fall ing</w>
fai ts</w>
f élic
f us</w>
f f</w>
f ant
exp ec
exc ited</w>
ex tr
ex pres
ex hausted</w>
ex am</w>
every where</w>
ev ine</w>
ev idence</w>
ev en
eur re</w>
et é</w>
et tez</w>
ess enti
espér anto</w>
escap e</w>
es ts</w>
er v
er iez</w>
er ia</w>
ep tion</w>
envoy er</w>
envir on</w>
envir on
ense igner</w>
enf in</w>
en v
en fu
el ected</w>
ei gh
earthqu ake</w>
e ding</w>
e conom
détru it</w>
dér ange</w>
déci der</w>
dé çu</w>
dé cé
du m
dro p</w>
drin ks</w>
doul eur</w>
do wn
do s</w>
do ors</w>
dist in
dis gu
différen ce</w>
difficul ty</w>
di se</w>
di ri
di rait</w>
di rai</w>
di g
di es</w>
determin ed</w>
dess ert</w>
des k</w>
des erve</w>
des cri
der s</w>
der ing</w>
den y</w>
den i
del icious</w>
dec ide</w>
de f
d èle</w>
d y
d us</w>
d ez</w>
d ata</w>
d anced</w>
cro yez</w>
cro ient</w>
cri se</w>
cr av
crav ate</w>
coû ts</w>
coup é</w>
cou teau</w>
correspon d
cor de</w>
convin ced</w>
contr act</w>
cont act</w>
conse illé</w>
connaiss ez</w>
connaiss ait</w>
connais se</w>
condu it</w>
con trol</w>
con stitu
comman de</w>
com porte</w>
col at</w>
co t
co pain</w>
co lor</w>
co late</w>
co chon</w>
clu b</w>
cli m
cl ever</w>
cl air</w>
cin em
cho colate</w>
cho colat</w>
chev al</w>
cher ches</w>
che ese</w>
chau ff
chau de</w>
chang ing</w>
chang es</w>
cham p</w>
chall en
ch al
ch ac
chac un</w>
ch a</w>
certain ement</w>
cer em
cele br
caus ed</w>
car tes</w>
car ds</w>
car act
cand y</w>
cam pagne</w>
cam era</w>
call ing</w>
cal m</w>
cal cul
c élèbre</w>
c ée</w>
c y
c ou</w>
c learly</w>
c king</w>
c ité</w>
c e
butt on</w>
but ter</w>
buil t</w>
bu g</w>
bro thers</w>
br as</w>
bon jour</w>
bon heur</w>
bo ss</w>
ble u</w>
bl ement</w>
bl ame</w>
bir d</w>
bicycl ette</w>
bi en
believ ed</w>
bed room</w>
be ef</w>
be coming</w>
be at</w>
bas eball</w>
ban des</w>
b one</w>
b is
b eurre</w>
b ear</w>
b ase</w>
b ank</w>
b all
b ad
b ac
avo cat</w>
aver age</w>
av aient</w>
autre fois</w>
au tumn</w>
au rai</w>
attrap e</w>
att endu</w>
ati f</w>
ath y</w>
as sure</w>
as i
as hed</w>
as h</w>
arti f
arrê t</w>
ar rested</w>
ar ms</w>
ar gu
appoin tment</w>
appel l
ap prends</w>
ap er
any where</w>
an ne</w>
amus er</w>
amus ant</w>
ambi tion</w>
am ent</w>
am bul
am az
altern ative</w>
alim ents</w>
al liez</w>
ais ons</w>
ag res
ad verti
ad or
ad di
ad d</w>
ach ed</w>
ac ide</w>
absolu tely</w>
abili té</w>
ab ly</w>
a head</w>
You Tu
Y u
Uni on</w>
So leil</w>
Sal ut</w>
S ach
S M
R es
Qu els</w>
P er
L u
Ital y</w>
Ital ie</w>
I s
H i</w>
Euro pe
Es peranto</w>
D is
D evine</w>
C or
C ol
C ar
Bri tish</w>
B raz
An ne</w>
Al ger
A s
œu rs</w>
û mes</w>
ô me</w>
î mes</w>
ê t</w>
étudi ante</w>
étu de</w>
éti t</w>
ét ant</w>
ét aire</w>
ét ab
ép in
én om
énom ène</w>
égo ï
économ ie</w>
écl ata</w>
é ro
éro port</w>
é po
épo que</w>
é oro
é car
é an</w>
â me</w>
â ché</w>
z one</w>
yth ag
youn ger</w>
y p
y g
y ait</w>
xi ème</w>
x ty</w>
wonder ing</w>
wo od</w>
win ning</w>
wi de</w>
wh is
wh ale</w>
weir d</w>
wea k</w>
we e</w>
we al
was hing</w>
was hed</w>
w ned</w>
w it
w is
w ind</w>
w il
véri table</w>
vou liez</w>
vol é</w>
vol ant</w>
vo te</w>
vo leur</w>
vo ix</w>
vo ice</w>
vir g
vin cible</w>
veu illes</w>
ver rou
ven iez</w>
veget ables</w>
vali d</w>
v ely</w>
v ari
v ain</w>
v ague</w>
utilis é</w>
utilis ez</w>
uti lise</w>
un less</w>
ug ly</w>
u rel</w>
u ko</w>
té nu
té mo
tw enty</w>
tt les</w>
tru c</w>
trouver as</w>
trouv ent</w>
trouv ait</w>
trou bles</w>
tro isi
troisi ème</w>
tri ste</w>
tri ce</w>
traver ser</w>
travail les</w>
transl ations</w>
trai ter</w>
trai te</w>
traduc tions</w>
traduc tion</w>
tr op
tou ché</w>
ton gue</w>
tom be</w>
to it</w>
to ire</w>
ti m
ti ll
thous and</w>
ther mo
them ati
themati cs</w>
th ro
th r
th ick</w>
terri blement</w>
termin er</w>
ter ms</w>
tend ance</w>
ten té</w>
ten te</w>
ten ait</w>
tem per
temper ature</w>
techno log
te en
tai l</w>
t te</w>
t ors</w>
t le</w>
t ations</w>
t as
t ary</w>
t ante</w>
t anni
t act</w>
sû rement</w>
séri eusement</w>
séri e</w>
sé ché</w>
symbo l</w>
sy st
syst ème</w>
sur face</w>
sup porter</w>
sun ny</w>
sun der
suiv ant</w>
suici de</w>
sugg ère</w>
sugg est</w>
su d
sud den
sudden ly</w>
str eng
str ai
sto ck</w>
st er</w>
st ep</w>
st aying</w>
ss age</w>
spor ts</w>
spo t</w>
spir ation</w>
speci al</w>
spec tat
sp read</w>
sp ending</w>
sp ell</w>
sp ati
soul ag
sou rire</w>
sou ri
sor tez</w>
son gs</w>
som bre</w>
sol ved</w>
sof a</w>
soci ety</w>
soci al</w>
so r</w>
so ft</w>
slow ly</w>
sli pped</w>
skir t</w>
silen ci
si xty</w>
si gn
si eur</w>
sho wed</w>
sh el
shel f</w>
sh ame</w>
servi ces</w>
ser ver</w>
ser t</w>
ser iez</w>
senti ment</w>
sensi tive</w>
sen sé</w>
sen sible</w>
sembl ant</w>
sembl ait</w>
sel y</w>
sel fish</w>
secon de</w>
secon d
sec tion</w>
se x</w>
scientifi ques</w>
scienti sts</w>
sci ences</w>
schedu le</w>
sav ed</w>
sau ver</w>
sal on</w>
sal ade</w>
sal ad</w>
sac ri
sacri fices</w>
sa ka</w>
s y</w>
s ex
s et
s col
s co
sco pe</w>
s c
s ave</w>
s am
s ain</w>
s ain
s ad</w>
s Ap
sAp p</w>
rés il</w>
répon ds</w>
ré gi
ré col
ré alité</w>
rus se</w>
ru mor</w>
ru le</w>
ru ined</w>
rom ettez</w>
ro scope</w>
ro bo
robo t</w>
rist es</w>
ris ques</w>
ris que</w>
ris k</w>
ri z</w>
ri que</w>
ri n</w>
ri ghts</w>
ri el</w>
ri d
rid eau</w>
res tez</w>
res tes</w>
res ident</w>
requ est</w>
repai red</w>
rem ettre</w>
religi on</w>
rel ated</w>
reconnaiss ante</w>
rec ev
re qui
re présent
re pe
re moved</w>
re mind</w>
re main
re ached</w>
rap ide</w>
rais ed</w>
racon ter</w>
r in
r ati
r are</w>
r appelez</w>
r app
r ank</w>
r .</w>
quit te</w>
quin ze</w>
qu eue</w>
pê che</w>
pén étr
pé enne</w>
pun ished</w>
pun i</w>
puiss ance</w>
puis siez</w>
publi que</w>
pu re</w>
psy chi
préfér erais</w>
pré vu</w>
pré vois</w>
pré occup
pré cis
pruden te</w>
pru dent</w>
proté ger</w>
proper ly</w>
pronon cer</w>
promis ed</w>
prom ets</w>
prof onde</w>
prof it</w>
produ its</w>
pro vi
pro ved</w>
pro j
priv é</w>
princ esse</w>
princ ess</w>
pri son
pres sure</w>
prend ra</w>
pre p
prep are</w>
pre gn
pr of</w>
pour vu</w>
pot ato
potato es</w>
post card</w>
possibili ty</w>
poss ède</w>
pos tale</w>
ponctu el</w>
politi cal</w>
poli te</w>
poin ts</w>
poe m</w>
po ème</w>
pleu re</w>
plea sure</w>
plan ning</w>
plan e</w>
plais ante</w>
piè ces</w>
pic ni
picni c</w>
physi que</w>
philoso ph
philosoph y</w>
philoso p
philosop hi
philosophi e</w>
ph énomène</w>
ph en
phen om
phenom en
phenomen on</w>
ph ar
phar m
per spec
per mit</w>
per mettre</w>
per due</w>
pens ent</w>
pen c
pein ture</w>
pe int</w>
passe port</w>
pass word</w>
pass port</w>
pass age</w>
parti cip
part ment</w>
parl ons</w>
par s</w>
par ole</w>
par mi</w>
par fai
parfai tement</w>
pain t</w>
p tion</w>
p it
p il
p ie</w>
p et</w>
p eau</w>
p ea
p ants</w>
p acked</w>
p acifi
ou ons</w>
ou l</w>
or dres</w>
or dre</w>
or c
open ing</w>
on z
om b</w>
ol d
ok oh
okoh ama</w>
ois eaux</w>
oc éan</w>
obj ets</w>
obj ect</w>
ob serve</w>
o te</w>
o lution</w>
nu l</w>
no yé</w>
no se</w>
no ise</w>
ni er</w>
neighb ors</w>
nat urel</w>
naiss ance</w>
n ôtre</w>
n t</w>
n es
mê mes</w>
mét éoro
méri te</w>
mé moire</w>
musici en</w>
musici an</w>
mus ical</w>
mul ti
mor gue</w>
mon te</w>
mo yenne</w>
mign ons</w>
mic roscope</w>
mi sunder
mi ddle</w>
merveill eux</w>
menti r</w>
ment i</w>
men er</w>
mauv aises</w>
mati que</w>
mat ure</w>
mat ins</w>
marr on</w>
mar k
mal gré</w>
mai ne</w>
mai ent</w>
mag ni
ma î
ma thematics</w>
ma jo
m è
m ouv
m ez</w>
m ess</w>
m ement</w>
m ecs</w>
m ea
m ar</w>
légu mes</w>
ly cée</w>
lu re</w>
lon gs</w>
logi ques</w>
lo y
lo ver</w>
lo cked</w>
lo ck</w>
ll esse</w>
lign es</w>
li on</w>
li ghts</w>
li en</w>
li c</w>
li bat
libat aire</w>
les quelles</w>
leg al</w>
l âche</w>
l ess
l ent
lent ement</w>
l ec
l ay</w>
l an
l aid</w>
l ad
l ab
kni ves</w>
kis sing</w>
kil om
kee ping</w>
k y</w>
k ly</w>
k ar
ju dge</w>
jou ent</w>
jo ie</w>
je ans</w>
je an</w>
je al
jeal ous</w>
j ette</w>
j al
is tr
is m</w>
is er</w>
invit és</w>
invit ées</w>
introdu ced</w>
introdu ce</w>
inter rom
inter net</w>
intellig ence</w>
intelli gen
intelligen te</w>
inst ead</w>
ingéni eurs</w>
indu stri
in vincible</w>
in tended</w>
in surance</w>
in stru
in e
ine ers</w>
in dic
in de
in clu
in cl
impli qué</w>
imp act</w>
im patience</w>
im mor
ill ard</w>
ignor ance</w>
identi al</w>
i zed</w>
i tive</w>
i or</w>
i ko</w>
i gu
i ff
iff el</w>
i ally</w>
hu man
hu maine</w>
hor se</w>
hor reur</w>
holi day</w>
ho pin</w>
ho o
ho l</w>
ho b
hob by</w>
high ly</w>
high er</w>
hi te</w>
heure uses</w>
heu r
her o</w>
hel lo</w>
head ache</w>
he at</w>
happ iness</w>
hang ing</w>
habitu é</w>
h ou
h es</w>
h en
h ell</w>
h at
hat sApp</w>
h ang</w>
h ad
had n</w>
génér alement</w>
génér al</w>
géni e</w>
guit are</w>
guit ar</w>
guil ty</w>
gu im
gu ests</w>
grou p</w>
gre w</w>
gre en</w>
gram me</w>
go d</w>
gi ant</w>
gho sts</w>
genti llesse</w>
gen oux</w>
gen cy</w>
gath ered</w>
g ér
g ress
g orge</w>
g onna</w>
g ement</w>
g asp
fu cking</w>
fron ti
fre e
franch ement</w>
fran kly</w>
fr es
fore ign</w>
forc é</w>
for êt</w>
for ts</w>
for gotten</w>
for cer</w>
fon d</w>
fo ot</w>
fo lie</w>
fl at</w>
fin ir</w>
fil ms</w>
fi le</w>
fi er</w>
fi dèle</w>
fer ence</w>
fe ed</w>
fav orable</w>
fau tes</w>
fant ômes</w>
fall en</w>
fall ait</w>
fai th</w>
fai sais</w>
fai lure</w>
fai ble</w>
f ous</w>
f lies</w>
f leur</w>
f aux</w>
f ab
expres sions</w>
explo sion</w>
expli qu
exerci ce</w>
exam in
exac t</w>
ex pri
ex press</w>
ex plain
ex cl
ev olution</w>
ev il</w>
ev ant</w>
eu xième</w>
ess ed</w>
esp èce</w>
esp ec
espec ially</w>
es ome</w>
er ont</w>
er ons</w>
er i
er as</w>
equ al</w>
envir onnement</w>
entr é</w>
enti ssage</w>
enti re</w>
enti er</w>
ent é</w>
ent ation</w>
enn ad</w>
eng ineers</w>
endorm i</w>
end ur
end ra</w>
en y</w>
en tered</w>
en courag
emprun ter</w>
emp ty</w>
em pêché</w>
el en</w>
eg g</w>
effor t</w>
eff ect</w>
econom y</w>
ea se</w>
e w
e ply</w>
e ine</w>
e ille</w>
e duc
e ats</w>
dét ec
dé mé
dé goû
dy nam
dra w</w>
doub ts</w>
dou é</w>
dou te</w>
donn ées</w>
donn ent</w>
do cu
distin gu
dispos es</w>
dish es</w>
dis count</w>
direc teur</w>
différen ts</w>
différen ces</w>
dic t</w>
di ses</w>
di ra</w>
di al
di agno
di able</w>
deven us</w>
dev raient</w>
dev i
dev ait</w>
dess inées</w>
des pi
des er
deni ed</w>
de par
de fe
de eply</w>
de bout</w>
de b
daugh ters</w>
d ry</w>
d ommage</w>
d euxième</w>
d ent
d ea
d ating</w>
d ai
cé libataire</w>
curi os
cur tain</w>
cul tures</w>
cul ation</w>
crow d</w>
cros sed</w>
cri tique</w>
cri t</w>
cri sis</w>
cre ated</w>
cre ate</w>
cr ush</w>
cr ay
cr ain
coû té</w>
couver ture</w>
cour amment</w>
coup able</w>
cou teaux</w>
cou per</w>
cou leur</w>
correc te</w>
contribu tor</w>
contribu teur</w>
contr ôle</w>
constitu ent</w>
connaiss ance</w>
connais sais</w>
conf érence</w>
conf ec
concl usions</w>
concer ned</w>
concentr er</w>
con su
con som
con serv
con nue</w>
con gé</w>
comport ement</w>
compl et</w>
comp lic
comm un</w>
comm itted</w>
com par
com ic</w>
coll ec
col li
co ward</w>
co ver</w>
co ok
co hol</w>
cle an
cir culation</w>
cir cu
cir const
cinem a</w>
ci tiz
ci ous</w>
ci ation</w>
chino is</w>
chaus s
char ged</w>
char ac
chant euse</w>
chant eur</w>
chanc euse</w>
chan sons</w>
chal eur</w>
ch ée</w>
ch ons</w>
ch air</w>
cerem ony</w>
cen tu
cen sé</w>
cel les</w>
caus é</w>
cass er</w>
caract ère</w>
capit aine</w>
cap tain</w>
can ap
canap é</w>
c rai
c esse</w>
c eful</w>
c ath
c ated</w>
c arrière</w>
c ally</w>
bur ned</w>
brû lé</w>
bru it</w>
brill ante</w>
bre ath</w>
br ush</w>
br ain</w>
bou ton</w>
bor ro
bor ing</w>
bor del</w>
boo k
bo ttles</w>
bo red</w>
bo ard</w>
bless ée</w>
bless er</w>
bl onde</w>
bl ind</w>
bl es
bis cu
bir ds</w>
bill ets</w>
bill et</w>
bi olog
bi le</w>
bi g
believ es</w>
beli ef</w>
beg in</w>
beau té</w>
beau ty</w>
be tr
be have</w>
be cue</w>
be ating</w>
bar becue</w>
ban que</w>
bal eine</w>
bad ly</w>
b œuf</w>
b én
b i</w>
b an</w>
az ak
ay uko</w>
ay ant</w>
aw esome</w>
av ions</w>
av ion</w>
av ail
avail able</w>
augment é</w>
au té</w>
au teur</w>
atti tude</w>
attend ons</w>
attend ais</w>
atte int</w>
atte indre</w>
att aqu
att acked</w>
ath le
at é</w>
at om
assu me</w>
ass é</w>
ass is</w>
ass em
as t
as surance</w>
arrog ance</w>
arriv es</w>
appr entissage</w>
appr end</w>
appel ée</w>
appear ance</w>
app étit</w>
ap porte</w>
ap pl
ant ly</w>
annu l
and ra</w>
anak a</w>
an us</w>
an ta</w>
an k
ambul ance</w>
am ong</w>
am ical</w>
alph ab
alphab et</w>
alis m</w>
ali en</w>
ali bi</w>
al o
al cohol</w>
ais é</w>
air port</w>
aimer ait</w>
aim ée</w>
agres si
aggres sive</w>
ag on
ag ir</w>
ag awa</w>
aff ord</w>
af t</w>
adv antage</w>
ado p
ado les
ach ète</w>
accep table</w>
ac é</w>
ac qu
ac compli
ac a
abor d</w>
abo ie</w>
abili ty</w>
aband onner</w>
ab y
ab sor
a. m</w>
a éroport</w>
a x</w>
a part</w>
Yu k
YouTu be</w>
Y okohama</w>
W hite</w>
W hatsApp</w>
W ar</w>
V o
US B</w>
T r
T ony</w>
T he</w>
T anaka</w>
SM S</w>
S ou
S e
Russi an</w>
R oy
R I
P ythag
P romettez</w>
P resident</w>
P eter</w>
O saka</w>
N a
Mi ke</w>
Mar s</w>
Mar ia</w>
M y
M os
M ennad</w>
M ayuko</w>
M ag
Lon dres</w>
Lon don</w>
L a</w>
K o
K ing</w>
K en</w>
J ouons</w>
J ones</w>
J im
J av
J aponais</w>
J ack
Is ra
In dia</w>
In de</w>
I to</w>
H it
H en
H elen</w>
H ar
H a</w>
Gre en</w>
Europe an</w>
E iffel</w>
Con tin
Christ op
Char les</w>
Ch ri
Ch ine</w>
Ch ina</w>
Can adi
C omm
C hopin</w>
C ap
Braz il</w>
B u
B résil</w>
B ar
Ap par
Améric ains</w>
Americ an</w>
A tom
A fri
6 0</w>
4 0</w>
20 0
19 1
1 8
1 5</w>
1 50</w>
1 0
œu vre</w>
ô ne</w>
ï ne</w>
ê mement</w>
év ér
évér ance</w>
év è
étudi é</w>
étudi ent</w>
étu des</w>
étrang ers</w>
éti tion</w>
éte indre</w>
ét end</w>
ét end
ét ag
étag ère</w>
éri c
ér ature</w>
épuis é</w>
épou sé</w>
ép ais</w>
élè ve</w>
élev és</w>
élec tri
élec tr
électr onique</w>
égoï ste</w>
ég ard</w>
ég alité</w>
ég age</w>
écou té</w>
écou tez</w>
écou tes</w>
écou te</w>
échou é</w>
éch ecs</w>
é volution</w>
é prou
éprou ve</w>
é pic
é ment</w>
è tre</w>
z éro</w>
z er
zer o</w>
yp ti
your selves</w>
y side</w>
y ens</w>
y el
wri ter</w>
wor n</w>
wor kers</w>
wis dom</w>
whi ch
which ever</w>
whe el</w>
wh om</w>
wh er
wher ever</w>
weal thy</w>
wea pon</w>
we i
wei gh
we b
web site</w>
was ting</w>
war n</w>
war ds</w>
wal king</w>
w re
w le
w arri
warri or</w>
vé cut</w>
voul aient</w>
vou lu
voulu t</w>
volunte ered</w>
volon taire</w>
volon tai
vo lu
vo ler</w>
vo l</w>
viv ez</w>
viv ait</w>
vit esse</w>
vit al</w>
visi ble</w>
viol ent</w>
vic tory</w>
vic toire</w>
vic ti
vi ously</w>
vi ez</w>
vi ande</w>
vers ity</w>
ver ty</w>
ver sion</w>
ver res</w>
ven ues</w>
ven ons</w>
ven ge</w>
ven ge
venge ance</w>
velop pé</w>
val eur</w>
v ity</w>
v ented</w>
v as
v alis
v aiss
uti les</w>
ur in
ur gent</w>
ur al</w>
under standing</w>
un s</w>
un known</w>
un es</w>
un dance</w>
u rity</w>
u res</w>
u le</w>
témo in</w>
télé phones</w>
tw el
tu t</w>
tu g
tu eux</w>
tu e</w>
tu ally</w>
tt a</w>
tru sted</w>
trouver ez</w>
trom per</w>
tro le</w>
tri bun
tribun al</w>
trembl ement</w>
tre at</w>
travaill ons</w>
travaill ais</w>
trans por
tr é
tr yside</w>
tr unk</w>
tr ou</w>
tr apped</w>
tr ac
tour ner</w>
tou ristes</w>
tou ri
tor ture</w>
tomb a</w>
tom a
to x
to ward</w>
to oth
tion ed</w>
tin y</w>
timi d</w>
ti ves</w>
ti tre</w>
ti ous</w>
ti ger</w>
ti g
ti fs</w>
ti er</w>
ti endra</w>
ti ckets</w>
thous ands</w>
thir d</w>
ther n</w>
them selves</w>
th under</w>
th i
thi ef</w>
th ful</w>
tex te</w>
tex t
ter y</w>
ter mine</w>
ter me</w>
ter m</w>
ter ing</w>
ten tation</w>
ten t
ten d</w>
temp ête</w>
temp érature</w>
tea chers</w>
tat ou
tar te</w>
tar get</w>
tap is</w>
tal on</w>
tab li
tabli shed</w>
t tes</w>
t onne</w>
t les</w>
t i</w>
t ext</w>
t ends</w>
t ear</w>
t ches</w>
t au
tau ght</w>
t at</w>
t as</w>
t ants</w>
t and
tand is</w>
t an
t all
tall est</w>
t age</w>
t ables</w>
sû rs</w>
sû res</w>
séri euse</w>
sé quences</w>
sé jour
symbo le</w>
swe et</w>
sw eat
sw ear</w>
surviv ors</w>
surviv ants</w>
sur vive</w>
sur veill
sur er</w>
suppos és</w>
suppor ted</w>
supplément aire</w>
super market</w>
super marché</w>
sup p
sugg es
sub way</w>
su y
su spec
suspec te</w>
su dden</w>
su d</w>
sty le</w>
stupi des</w>
stu ff</w>
stu dies</w>
stu died</w>
stri c
streng th</w>
stre ets</w>
strai ght</w>
str on
stron ger</w>
str anger</w>
str ang
strang ers</w>
sto ok</w>
sto l
stol en</w>
sti ck</w>
stat us</w>
st re</w>
st or
stor m</w>
st one</w>
st ep
step ped</w>
st ea
stea k</w>
spi ri
spi der</w>
spati al</w>
sp ire</w>
sp ic
sp ends</w>
souhai tez</w>
souhai ter</w>
souff le</w>
soud ain
soudain ement</w>
souci e</w>
sou tenu</w>
sou cier</w>
sort ons</w>
sort is</w>
sort i</w>
soli d</w>
sol aire</w>
sm iling</w>
sm ell</w>
sli p</w>
sk in
skin ny</w>
siè ge</w>
siè cles</w>
siè cle</w>
situ e</w>
sit ting</w>
sist ers</w>
sist ance</w>
sin gu
silenci euse</w>
sil ly</w>
signi fication</w>
sibili ty</w>
si ère</w>
si us</w>
si este</w>
shor ter</w>
sho pping</w>
sho ck</w>
sha king</w>
sh oul
sh ou
sh it</w>
sh ine</w>
servi ettes</w>
ser s</w>
ser ré</w>
ser ons</w>
ser ies</w>
sent ait</w>
sembl ent</w>
sem ents</w>
sec urity</w>
se cours</w>
scho lar</w>
scar y</w>
sc ène</w>
sav ing</w>
sau ter</w>
sal ary</w>
saf ety</w>
sac ré</w>
s œurs</w>
s ée</w>
s u</w>
s prin
s our</w>
s lav
s l
s ez</w>
s ev
sev enty</w>
s ents</w>
s ence</w>
s en</w>
s cul
s cis
scis sors</w>
s ant</w>
s ag
sag esse</w>
s aches</w>
rê ves</w>
rê ve</w>
rê v
réus si
rési denti
rép étition</w>
rép are</w>
régu lièrement</w>
récol te</w>
réc emment</w>
ré vé
ré veille</w>
ré sistance</w>
ré pu
ré monie</w>
ré g
ré fu
ré di
ré con
ré cl
récl am
ru p
ru es</w>
ro y
ro pes</w>
ro pe</w>
ro om
room s</w>
ro of</w>
ro le</w>
ro i</w>
ro cks</w>
ridicu lis
ri o
ri l</w>
ri go
ri e</w>
ri ch
retour n
resul t</w>
respons abilité</w>
respon sibility</w>
respon d</w>
res ources</w>
res our
res ist</w>
res ist
resist ance</w>
res cu
rescu ed</w>
requ ires</w>
repe at</w>
rentr ée</w>
rentr é</w>
rencontr ons</w>
ren voy
ren omm
rempl i</w>
remain ed</w>
rem ain</w>
rel ax
regu lar
regular ly</w>
regre tte</w>
regre tt
regard ant</w>
regar des</w>
regar da</w>
refus é</w>
recomm end</w>
rec ently</w>
rec ast</w>
reali zed</w>
read s</w>
re viendra</w>
re té</w>
re trouvé</w>
re pro
re prendre</w>
re passer</w>
re pair</w>
re monter</w>
re mise</w>
re jet
re gi
re du
re conn
re command
re cherch
re ality</w>
rav i</w>
rapp elles</w>
rap porte</w>
ram assé</w>
rais ins</w>
rain ed</w>
rab b
rabb its</w>
ra w</w>
r ée</w>
r ying</w>
r ty</w>
r erais</w>
r ange</w>
r ang
quotidi enne</w>
quotidi en</w>
quar ante</w>
qu asi
quasi ment</w>
qu arti
quarti er</w>
qu anti
qu ali
q u</w>
péri ode</w>
péri l</w>
pénétr er</w>
pé trole</w>
puzz le</w>
publi é</w>
publi cité</w>
pu tain</w>
pu ri
pu r</w>
pu ll</w>
psychi c</w>
présent é</w>
présen te</w>
préf ères</w>
préci pit
préci eux</w>
pré voyez</w>
pré visions</w>
pré venue</w>
pré hen
pru dents</w>
propos es</w>
propos ed</w>
promen er</w>
promen ade</w>
prom is</w>
proj ets</w>
profession nel</w>
profession al</w>
profes sor</w>
produc ts</w>
produc t</w>
probab ili
pro ving</w>
pro per</w>
pro gress
pro gramme</w>
priv ate</w>
pri ved</w>
pri ori
pri mé</w>
pri l</w>
preu ves</w>
pres se</w>
prend rais</w>
premi ers</w>
pregn ant</w>
pre vented</w>
pre t
pre cious</w>
prati quement</w>
prati que</w>
practi cal</w>
pr ais
prais ed</w>
pouv aient</w>
pous sé</w>
pous ser</w>
pou sse</w>
pou red</w>
pou p
post po
postpo ne</w>
port ez</w>
por terai</w>
pon du</w>
politi ci
po ète</w>
po w
po verty</w>
po ni
po ig
poig née</w>
po i
po et</w>
po ems</w>
pleu rait</w>
pleas ant</w>
ple ine</w>
plan ation</w>
plain tes</w>
plac é</w>
pl om
pl aire</w>
pl af
plaf ond</w>
pickpo ckets</w>
pic ked</w>
pic k</w>
pi ti
pi sto
pi ec
pi c</w>
peti tion</w>
persu ader</w>
persu ade</w>
perspec tive</w>
person nel</w>
pers évérance</w>
pers ever
persever ance</w>
perfec tly</w>
per man
per d</w>
pens ées</w>
pens ait</w>
pend ent</w>
pend ante</w>
penc il</w>
pe indre</w>
pe anu
peanu ts</w>
pauv reté</w>
pauv res</w>
pati ents</w>
pass a</w>
particu lièrement</w>
parti ra</w>
part is</w>
par te</w>
par liez</w>
par ess
par eil</w>
par donn
par don</w>
pan talon</w>
pain ful</w>
p èse</w>
p tions</w>
p ne
pne u</w>
p ir
p ills</w>
p ath</w>
p al
p a</w>
oy ens</w>
ouver tes</w>
ouv re</w>
oubli er</w>
ou tr
ou illes</w>
ou ette</w>
ot tes</w>
origin al</w>
ori es</w>
organ ized</w>
or dered</w>
opér ation</w>
opportun ité</w>
opin ions</w>
oper ation</w>
oper ate</w>
op pos
op ed</w>
on line</w>
on gs</w>
on dé
on dance</w>
on aire</w>
om mag
off ic
offic er</w>
od d</w>
od b
odb ye</w>
occu r
oc e
oce an</w>
oblig ée</w>
oblig ations</w>
objec tion</w>
ob viously</w>
ob s
ob jet</w>
ob iles</w>
o wer</w>
o w</w>
o o
oo gle</w>
o ke</w>
o il</w>
o es</w>
o cr
o bile</w>
num éri
num b
nu ts</w>
nu ages</w>
nouv eaux</w>
no tice</w>
no tes</w>
no r</w>
no ire</w>
nitu re</w>
ner veu
ner ve</w>
necess ar
necessar ily</w>
near ly</w>
near est</w>
ne ig
n és</w>
n ative</w>
n ap</w>
n ant</w>
n ais</w>
n aie</w>
météoro logiques</w>
méd aille</w>
mé th
mur mu
multi lin
multilin gu
mouv ement</w>
mour ut</w>
mou th</w>
mor te</w>
montr ent</w>
mondi ale</w>
mondi al</w>
mon naie</w>
moder n</w>
mo teur</w>
mo s
mo quer</w>
misunder standing</w>
mist a
mista ken</w>
mis éri
minu it</w>
milli ers</w>
mil es</w>
mi stook</w>
mi rent</w>
mi f
mif ère</w>
mi el</w>
mi e</w>
mi d
mer de</w>
mer cy</w>
ment al</w>
mem bre</w>
me th
me di
me d
med al</w>
me chan
me at</w>
me als</w>
maî tri
mat éri
mat inée</w>
mat eri
mas ter</w>
mark eting</w>
mari ée</w>
manu el</w>
manu al</w>
manqu ez</w>
manqu ent</w>
manqu ait</w>
mani pul
mani f
manif es
mang ez</w>
mang ent</w>
man qué</w>
man ques</w>
man aged</w>
mam mifère</w>
mam mal</w>
maladi es</w>
majo rity</w>
maj or</w>
magni fi
ma ître</w>
ma ths</w>
m ène</w>
m p</w>
m ember</w>
m ec</w>
m ation</w>
m ans</w>
m and
m aisons</w>
lé ger</w>
lum bus</w>
lou d</w>
lon gue</w>
logi que</w>
lo yer</w>
lo vely</w>
lo ses</w>
lo ge</w>
liv er</w>
lin k</w>
lic ations</w>
liber té</w>
li tres</w>
li ters</w>
li qui
li p
li king</w>
li gne</w>
li fe
life time</w>
lev el</w>
let ting</w>
lar ger</w>
lap top</w>
lap ins</w>
lang age</w>
lad y</w>
l ying</w>
l une</w>
l les</w>
l ler</w>
l ente</w>
l em
l ave</w>
l au
l atin</w>
l ately</w>
l at
l as</w>
l as
l ack</w>
l abor
kno wle
kno ck</w>
k ilo
kilo s</w>
k id</w>
ju ry</w>
ju re</w>
ju pe</w>
ju ge</w>
ju d
jou eurs</w>
jo ke</w>
jo indre</w>
jo gg
jogg ing</w>
jet er</w>
jet a</w>
jal oux</w>
j i</w>
j el
j au
j apon
j ail</w>
j ack</w>
iv re</w>
it ées</w>
it ée</w>
it ting</w>
it self</w>
iss ez</w>
is é</w>
is sons</w>
is sait</w>
ir on</w>
ir ait</w>
ir ais</w>
invit ée</w>
intéress és</w>
inté resse</w>
internation ale</w>
internation al</w>
inten d</w>
intellig ents</w>
inform ations</w>
indi que</w>
inde pendent</w>
increas ed</w>
in timi
in time</w>
in spiration</w>
in san
in k</w>
in corri
incorri gi
in come</w>
in ci
in cen
in ce</w>
in calcul
incalcul able</w>
immé di
im pul
im pati
il legal</w>
igno red</w>
ign it</w>
ign ers</w>
ig t</w>
idé es</w>
idi ote</w>
ici el</w>
ic ace</w>
i ère</w>
héro ïne</w>
hypoth èse</w>
hypoth es
hypothes is</w>
hun g</w>
hu ètes</w>
hu mor</w>
hu mains</w>
hou ses</w>
honn eur</w>
hon ey</w>
ho ping</w>
histo ires</w>
heur té</w>
her oin</w>
her e
heav ily</w>
hau te</w>
har v
har i
har d
hand some</w>
hand ed</w>
habitu er</w>
habitu ellement</w>
habit ait</w>
hab its</w>
hab it</w>
hab ill
h éri
h ates</w>
h all</w>
h a</w>
géri e</w>
géni es</w>
gé ante</w>
guer rier</w>
gu ère</w>
gu eu
gueu le</w>
gu essed</w>
grand ma</w>
grand i</w>
gr adu
gol d
go tta</w>
go odbye</w>
glo bal</w>
gl é</w>
gl ace</w>
gi ft</w>
gh ting</w>
genti lle</w>
geni uses</w>
geni us</w>
gener ally</w>
gar dé</w>
gar der
garder ai</w>
gal ax
g ê
g ou
g gl
g ez</w>
g el
g ay</w>
g as</w>
fur ther</w>
fur niture</w>
fu el</w>
fronti ère</w>
friend ship</w>
frapp é</w>
frapp e</w>
frapp a</w>
fran ç
fourn it</w>
fourn ir</w>
form s</w>
for mul
for ces</w>
for bi
forbi dden</w>
fonc tionné</w>
fo recast</w>
flu ent</w>
fl ying</w>
fl av
fl as
fl ag
fin ger</w>
fin anci
fi ère</w>
fi ghting</w>
fi el
fiel d</w>
fi an
fi able</w>
fer ions</w>
feel s</w>
faul ts</w>
fatigu ée</w>
fai thful</w>
fai r</w>
fai n
fac ture</w>
fac es</w>
f ûmes</w>
f ê
f âché</w>
f oun
f le</w>
f fr
f aus
faus se</w>
f asses</w>
f allu
fallu t</w>
f al
extr êmement</w>
explain ed</w>
exp lication</w>
exig é</w>
exem ple</w>
excus er</w>
excel lent</w>
exc ès</w>
examin ation</w>
ex tra</w>
ex planation</w>
ex ion</w>
ex i
ex e</w>
ex change</w>
every day</w>
even tually</w>
ev ents</w>
ev ed</w>
ev e</w>
euro péenne</w>
et eria</w>
esti mat
essay ez</w>
essay a</w>
ess ez</w>
esc ali
es tablished</w>
er ror</w>
er o
er ie</w>
er gi
environ ment</w>
env a
entre tenir</w>
entr aî
entr ance</w>
entr al</w>
entr a</w>
entr a
entra îner</w>
enti ère</w>
enti rely</w>
enseign é</w>
ennu yeux</w>
ennu y
enjo ys</w>
engag ement</w>
end ure</w>
end or
end ommag
end er</w>
end ant</w>
enc y</w>
enc ed</w>
enc e
en visage</w>
en vis
en vers</w>
en verrai</w>
en lève</w>
en ez</w>
emprun te</w>
emplo yer</w>
emplo yed</w>
emplo y
em mène</w>
em bre</w>
el sius</w>
el ler</w>
el led</w>
el ect</w>
el ec
elec tri
eigh teen</w>
effray é</w>
effec tive</w>
eff icace</w>
ec ts</w>
eas ier</w>
ear lier</w>
ea bles</w>
e ût</w>
e th
e ons</w>
e illes</w>
e fully</w>
e d
détermin ation</w>
dési re</w>
déli cieux</w>
déjeu né</w>
déf i</w>
décé dé</w>
découver te</w>
déclar é</w>
dé so
dé s</w>
dé pêché</w>
dé pêcher</w>
dé pourvu</w>
dé pensé</w>
dé passer</w>
dé nu
dé lic
dé gr
dé fil
dé cor
dé con
décon ne</w>
dé ch
dé barrass
du ty</w>
du ck</w>
dro wned</w>
dro ve</w>
dro pped</w>
dri ed</w>
dr ôle</w>
dr aw
down town</w>
doub t</w>
dou tes</w>
dou c
dor ment</w>
donn ée</w>
dom aine</w>
do w</w>
do igt</w>
divor ce</w>
dist ant</w>
dispos ent</w>
dispos ais</w>
dispar u</w>
disgu sting</w>
discus sed</w>
discu té</w>
disco vered</w>
dis puter</w>
dis poni
dis appear
direc tor</w>
diplom ati
din gue</w>
différen te</w>
difficul té</w>
diffic iles</w>
diff ère</w>
dic tion</w>
dic ted</w>
di so
di rty</w>
di rent</w>
di gne</w>
di ez</w>
di eu</w>
deven ue</w>
dev iner</w>
dev ais</w>
determin ation</w>
despi se</w>
deser ves</w>
desc end
des tin</w>
des ire</w>
derni ères</w>
depar ture</w>
denti ste</w>
denti st</w>
demand ed</w>
dec or
dec ei
de prived</w>
de finite</w>
de ed</w>
de dans</w>
dam aged</w>
dai ly</w>
d ès</w>
d ors</w>
d ear</w>
cé rémonie</w>
cuisin ière</w>
cuisin ier</w>
cu red</w>
cu l</w>
cu e
cré é</w>
cré dit</w>
cros sing</w>
criti ques</w>
crimin al</w>
cre dit</w>
cre am</w>
cray on</w>
crai gn
cr ème</w>
cr ashed</w>
couver t</w>
courag eux</w>
cour te</w>
coup a</w>
coun tryside</w>
cou ps</w>
cou le</w>
cou ché</w>
correc tly</w>
cor pus</w>
cor des</w>
cook ies</w>
convainc u</w>
contr ary</w>
contr ari
contr aire</w>
continu é</w>
continu er</w>
cont ac
constru it</w>
const amment</w>
conse ille</w>
conse illa</w>
consci ent</w>
connaiss ent</w>
conna î
congratul ations</w>
condu ct</w>
condu c
concl u</w>
concer ne</w>
concer n</w>
concentr ate</w>
con vient</w>
con tient</w>
con séquences</w>
con fus
con fir
complic ated</w>
compli qué</w>
comple x</w>
complain ts</w>
complain ing</w>
comp ét
comp at
compat is</w>
commun ication</w>
commer ci
commer ce</w>
comment aires</w>
comment aire</w>
commen ç
comm and</w>
com prennent</w>
com bus
coll ine</w>
coll abor
col le
coff re</w>
co vered</w>
co ts</w>
clou ds</w>
clo sely</w>
cli ent</w>
clean ed</w>
cl av
cl asses</w>
cl ari
citiz ens</w>
cit oyens</w>
cis eaux</w>
circu m
circonst ances</w>
ci vi
ci v
ci eusement</w>
chois i</w>
cho sen</w>
cho ir</w>
cho c</w>
chino ise</w>
cherch ait</w>
che er</w>
che ating</w>
chauss ettes</w>
char g
chang ements</w>
cham pagne</w>
cham bres</w>
challen ge</w>
ch â
ch ouette</w>
ch ir
ch ess</w>
ch ant</w>
ch aise</w>
certain ly</w>
cer veau</w>
centu ry</w>
celebr ate</w>
ce iling</w>
cau ses</w>
cass ée</w>
cas h</w>
car efully</w>
cap ac
cam ion</w>
call s</w>
caf eteria</w>
cach er</w>
c é</w>
c on</w>
c is</w>
c ing</w>
c aca
caca huètes</w>
c ab</w>
bén é
bus te</w>
bri tanni
bri o
br onz
br an
br ac
boute illes</w>
bour g</w>
bou tique</w>
bou che</w>
borro wed</w>
bor der</w>
bor d</w>
bo ivent</w>
blo g</w>
blan ket</w>
bl on
bl ing</w>
bl in
bizar rement</w>
biscu its</w>
big ger</w>
bes ides</w>
ben ef
ben e
bel ongs</w>
bel ong</w>
beg ins</w>
be hav
be es</w>
be comes</w>
be at
beat en</w>
batt le</w>
bar s</w>
bar king</w>
bar ely</w>
bag s</w>
bag ages</w>
bac ks</w>
b û
b ê
b ound</w>
b om
b illi
b ass
b ande</w>
b ai
av ril</w>
av ou
av eu
av ed</w>
av ancé</w>
autori té</w>
autori sé</w>
autom obile</w>
auto ris
auth ority</w>
au rez</w>
au ra</w>
au près</w>
au nt</w>
au di
attrap er</w>
atti rer</w>
attaqu és</w>
att ack</w>
atom ique</w>
assist ant</w>
assi se</w>
asp ir
as surer</w>
as sum
as ide</w>
artif icial</w>
arti cles</w>
arrê tée</w>
arrog ants</w>
arro se</w>
arriver ait</w>
arriv és</w>
arriv ait</w>
archit ecte</w>
archit ect</w>
ar m</w>
ar d
ar ai
arai gnée</w>
ar ab
appréci ent</w>
appro ve</w>
appro che</w>
appel ons</w>
appar u</w>
appar tement</w>
appar ence</w>
app ear</w>
apologi zed</w>
ap porter</w>
ap ples</w>
ap petite</w>
anxi ous</w>
answ ered</w>
annul ée</w>
an cho
amélior é</w>
amus ante</w>
amaz ing</w>
am éric
am itié</w>
am en
am bo
altern atives</w>
allu mer</w>
all ées</w>
all ergi
alis me</w>
alis ation</w>
alent ours</w>
al ty</w>
al ed</w>
aiss er</w>
ain ed</w>
aimer ions</w>
aim ons</w>
aim ed</w>
ail les</w>
aider a</w>
ai mais</w>
ai maient</w>
ai des</w>
ag i</w>
aff ir
aff i
adv anced</w>
ador ent</w>
addi tion</w>
ad orable</w>
ad mit</w>
ad dressed</w>
ad dicted</w>
ad ded</w>
actu ellement</w>
actu elle</w>
acti vité</w>
acti vity</w>
ach è
accep té</w>
accep ted</w>
ac id</w>
ac er</w>
absur de</w>
aband onn
ab undance</w>
ab str
ab ondance</w>
ab lement</w>
ab eilles</w>
a ï
a partment</w>
a des</w>
W i
W ar
V er
Uni es</w>
U r
T ower</w>
T i
T his</w>
T h
S un</w>
S a
Roy al</w>
Re petition</w>
Per mettez</w>
Par donnez</w>
P or
P at
P al
O u
Mon sieur</w>
M us
M r.</w>
M is
M il
M al
M ac
L avez</w>
L atin</w>
Ko be</w>
Je anne</w>
Jack son</w>
J o
Ital ian</w>
Intern ational</w>
In vite</w>
H um
H onn
H i
G u
G rand
G oogle</w>
G ar
Fran çais</w>
Dé barr
Di able</w>
D égage</w>
D u
D e
Cor ri
Col omb</w>
Co lumbus</w>
Chri sti
Ch il
C re
C om
C essez</w>
C entral</w>
C elsius</w>
C e</w>
C ath
B ou
B ill</w>
B ats</w>
B C</w>
Australi an</w>
Atom ic</w>
Ap portez</w>
Alger ia</w>
Al gérie</w>
A pril</w>
A m
4 000</w>
3 00</w>
2 8</w>
2 .
1 00</w>
, 000</w>
û te</w>
ô tres</w>
ô ti</w>
ô ta</w>
ï e</w>
ï de</w>
î n
în mes</w>
î le</w>
í o</w>
ê t
êt eté</w>
ê pes</w>
ê le</w>
évè n
évèn ements</w>
évi dence</w>
év an
évan ou
étudi a</w>
étrang ères</w>
étab li</w>
ét éri
étéri a</w>
ét y
ét rin</w>
ét ou
étou ff
ét onné</w>
ét off
étoff e</w>
ét ern
ét ari
ét an
éri r</w>
éri eur</w>
ér ée</w>
ér u
éru dit</w>
ér i</w>
épin gle</w>
épic é</w>
ép reu
épreu ve</w>
ép au
énor mé
énormé ment</w>
éni g
énig me</w>
én erv
én avant</w>
élo igne</w>
élic it
élicit ations</w>
élev é</w>
électri cité</w>
él ection</w>
égo ci
ég étari
ég li
ég ale</w>
écureu il</w>
écu ter</w>
écri vain</w>
écri rai</w>
écras é</w>
écras er</w>
écou tais</w>
économ ise</w>
échapp é</w>
é si
é reuse</w>
é mo
é lé
élé ph
é lu
é lire</w>
é duc
é char
échar pe</w>
é change</w>
é chan
échan till
é a</w>
è vement</w>
è tres</w>
è rerais</w>
è des</w>
è ches</w>
ço is</w>
ç ut</w>
ç ues</w>
ç ant</w>
ç ailles</w>
â gé</w>
â g
É g
É co
Éco s
Écos sais</w>
z ones</w>
z om
z ing</w>
z i
z en</w>
z art</w>
z aine</w>
ypti an</w>
yg ones</w>
yel low</w>
y u
yu an</w>
y ou
y ond</w>
y m
y d
yd ne
ydne y</w>
y azak
yazak i</w>
y aux</w>
y ach
yach ts</w>
y &apos;</w>
xim ité</w>
x yg
x for
xfor d</w>
x em
xem bourg</w>
wre ck</w>
wr in
wrin k
wrink led</w>
wr apped</w>
wo ol</w>
wo ods</w>
wit ness</w>
wit n
win gs</w>
win ds</w>
wil d
wi dow</w>
wi der</w>
whis ky</w>
wh ites</w>
wh en
when ever</w>
wel d</w>
weigh s</w>
we ig
weig h</w>
we b</w>
wat ch
was ted</w>
war s</w>
war ming</w>
wan ting</w>
wan na</w>
wai st</w>
w ound</w>
w ol
w im
w et</w>
w all</w>
vê tement</w>
véri fi
voy ante</w>
voy agent</w>
voy ag
volontai res</w>
vol eurs</w>
vol can
vo que</w>
vo ies</w>
viv ons</w>
viv ement</w>
vit re</w>
vit am
visit era</w>
visi onn
vis ité</w>
virg in</w>
virg in
vir é</w>
vir er</w>
viol on</w>
viol ence</w>
vin t</w>
vin ce</w>
viend riez</w>
viend rait</w>
viend rais</w>
vie ws</w>
vie illes</w>
vie illard</w>
vidé os</w>
victi m</w>
vic time</w>
vi vions</w>
vi se</w>
vi ous</w>
vi oli
violi n</w>
vi o
vio let
vi er</w>
vi er
vier ge</w>
vi ennes</w>
vi du</w>
veu ve</w>
veu ille</w>
vers é</w>
vers ité</w>
verrou illé</w>
ver rons</w>
ver ing</w>
ver dict</w>
vend ent</w>
ven im
ven d</w>
ven ant</w>
vel ous</w>
veill er</w>
veget ari
vari ous</w>
van ter</w>
valis es</w>
vali se</w>
vali de</w>
val ue</w>
val u
valu able</w>
val able</w>
vaiss elle</w>
vac u
vac ations</w>
v ôtre</w>
v égétari
v ul
vul g
vulg aire</w>
v res</w>
v illes</w>
v il
v ez</w>
v este</w>
v ents</w>
v ends</w>
v ember</w>
v ated</w>
v at
vat ar</w>
v ar
v ain
v ache</w>
v able</w>
utilis ée</w>
utilis ons</w>
uti li
us er</w>
urin ating</w>
urg ie</w>
urg es</w>
urg ed</w>
ur é</w>
ur veille</w>
ur ine</w>
ur day</w>
up iter</w>
univers it
universit aire</w>
uni tion</w>
uni qu
uni forms</w>
un shot</w>
un likely</w>
un ks</w>
un healthy</w>
un gar
ungar ian</w>
un g</w>
un for
un employed</w>
un easy</w>
un comfortable</w>
un ciation</w>
um p
ul ti
ulti mate</w>
u te</w>
u ine</w>
u er</w>
u els</w>
ty r
ty pes</w>
twel ve</w>
tw right</w>
tw are</w>
tur ns</w>
tug al</w>
tu és</w>
tu yaux</w>
tu euse</w>
tu es</w>
tu ber
tuber cu
tt el
ttel ettes</w>
tru sting</w>
tru m
trum pet</w>
tru cs</w>
trouv ée</w>
trouv âmes</w>
trouv ons</w>
trouv es</w>
trouv a</w>
trou bl
trop ical</w>
trop ho
tromp ette</w>
trom peur</w>
trom bone</w>
tro log
tro l
tri co
tri ché</w>
tri cher</w>
tri angle</w>
trembl er</w>
trembl ements</w>
trem ely</w>
tre ize</w>
tre ats</w>
traver sé</w>
traver sons</w>
travaill ez</w>
travaill erai</w>
trav els</w>
transpor ted</w>
transl ation</w>
trans lu
trans fus
transfus ions</w>
tran spire</w>
tran sm
transm ets</w>
trai tez</w>
tradi tions</w>
tradi tion</w>
tradi tion
tra hi</w>
tr ône</w>
tr ous</w>
tr ons</w>
tr ine</w>
tr as</w>
tr ap</w>
tr ait</w>
tr ag
tr ade</w>
touri sts</w>
tour né</w>
tour nez</w>
tour nent</w>
tour ne</w>
tou chez</w>
tou ch
tor ren
torren ts</w>
tor ou
torou te</w>
tooth ache</w>
tomb ent</w>
toma c</w>
toil ettes</w>
to y</w>
to wer</w>
to wards</w>
to w
to vers</w>
to tale</w>
to s
to ri
to ol</w>
to e</w>
to cks</w>
tis me</w>
tionn era</w>
tionn er</w>
tim bre</w>
tig re</w>
ti vement</w>
ti ré</w>
ti ra</w>
ti ls</w>
ti li
tili z
ti ght</w>
ti ez</w>
ti est</w>
ti ers</w>
ti ennes</w>
ti ennent</w>
ti cip
ti ci
thro po
thre at</w>
thre at
threat ened</w>
thr one</w>
thir teen</w>
thermo st
thermost at</w>
thermo dynam
ther mom
the at
theat re</w>
th us</w>
th ou
th ence</w>
text book</w>
tex ting</w>
tes ter</w>
tes t
test ament</w>
termin ée</w>
ter ro
ter res</w>
ter rain</w>
ter mes</w>
ter bro
terbro t</w>
ter ait</w>
tend ing</w>
tend in
tend ency</w>
ten ue</w>
ten tez</w>
ten sions</w>
ten ions</w>
ten ed</w>
ten dit</w>
ten ais</w>
temp ted</w>
temp tation</w>
tem por
tem per</w>
tel s</w>
teen ager</w>
teen ag
teenag ers</w>
technolog y</w>
te ph
teph en</w>
te book</w>
tax is</w>
tatou ages</w>
tat too</w>
tat ori
tatori al</w>
tas te</w>
tar di
tardi f</w>
tap e</w>
tal is
talis man</w>
tab le
table aux</w>
t étan
t èrent</w>
t ère</w>
t z</w>
t une</w>
t terbrot</w>
t sun
tsun ami</w>
t s
ts ch
tsch land</w>
t onn
tonn erre</w>
t less</w>
t led</w>
t lan
t ings</w>
t et
tet anus</w>
t ched</w>
t aux</w>
t ains</w>
t aine</w>
t ai</w>
t ack</w>
sépar ées</w>
sépar ati
séparati stes</w>
séjour ner</w>
sé v
sé isme</w>
sé ance</w>
sympath ize</w>
sy n
sweat y</w>
sw in
swin ging</w>
sw eep</w>
sw am</w>
suy ama</w>
susp ici
susp ic
suspic ion</w>
surviv al</w>
surveill ance</w>
surpri sing</w>
sur vie</w>
sur venir</w>
sur r
sur prendre</w>
sur plom
surplom b
sur nom</w>
sur ger
surger y</w>
suppos é</w>
suppor tive</w>
supplément aires</w>
supp lies</w>
sup érieur</w>
sup porte</w>
sun scre
sunscre en</w>
sul fu
suiv it</w>
suiv antes</w>
suit case</w>
suit able</w>
sugges tions</w>
suff ered</w>
suff er</w>
succ ess
sub j
sub ir</w>
su ni
su me</w>
su elle</w>
stupi di
stu r
stu pé
struc ture</w>
stri ct</w>
str at
stom ach</w>
sto ire</w>
sti ques</w>
sti que</w>
sti ens</w>
sti c</w>
ste ps</w>
ste ering</w>
stat ut</w>
star ing</w>
stand s</w>
stand ards</w>
st ly</w>
st er
ster fuck</w>
st ations</w>
st ati
st are</w>
st ances</w>
st an</w>
st an
stan bu
stanbu l</w>
st amp</w>
st all
stall ing</w>
st ain</w>
st ade</w>
st acked</w>
st able</w>
ss ée</w>
ss ez</w>
squir rel</w>
squ are</w>
spéci al</w>
sprin t</w>
spr ang</w>
spor tif</w>
spir acy</w>
spic y</w>
spi red</w>
spectat ors</w>
spectat eurs</w>
spec tion</w>
spea ker</w>
spe eding</w>
spe e
sp y</w>
sp ite</w>
sp in
sp here</w>
sp h
sph ère</w>
sp are</w>
sp an</w>
sour ce</w>
sour c
soulag ement</w>
sou tient</w>
sou thern</w>
sou per</w>
sou ffr
sou dure</w>
sou cis</w>
sor row</w>
son ges</w>
some day</w>
som bres</w>
solu ble</w>
soli de</w>
soldi er</w>
sold at</w>
sol ent</w>
sol dering</w>
soi rées</w>
sof tware</w>
sof tly</w>
so w</w>
so le
so irs</w>
so ient</w>
so cks</w>
sno b</w>
smar ter</w>
sm iled</w>
sm ashed</w>
sli d</w>
sl ain</w>
ski pped</w>
ski p</w>
ski ing</w>
sk illed</w>
sk ier</w>
sk i</w>
sin k</w>
sin ge</w>
sin es</w>
sil es</w>
signi fic
sig ner</w>
si onner</w>
si mul
simul ation</w>
shoul der</w>
sho ws</w>
sho w
sho ot</w>
sho o
shoo ting</w>
sho e</w>
sho cked</w>
shar pen</w>
shar p</w>
sha ken</w>
sh u
sh mal
shmal lows</w>
sh in
sh eer</w>
sh ap
set tled</w>
set backs</w>
serv ant</w>
ser te</w>
ser rez</w>
ser mon</w>
ser ions</w>
ser aient</w>
separ ati
separati sts</w>
separ ate</w>
senti t</w>
sent is</w>
sen te</w>
sem i</w>
sel ler</w>
sel fie</w>
sel dom</w>
see ds</w>
secre tary</w>
secr étaire</w>
secr ète</w>
second aire</w>
secon ds</w>
secon des</w>
seas ons</w>
seas es</w>
sear ching</w>
sear ch</w>
se yez</w>
se ize</w>
se ins</w>
se ille</w>
se em
seem ed</w>
se c</w>
scul p
sculp ture</w>
scr at
scrat ching</w>
scol ded</w>
scienti st</w>
scar f</w>
sav iez</w>
sauv ages</w>
sau va</w>
sau té</w>
sau ta</w>
sau ce</w>
satis faite</w>
sandwi ches</w>
sandwi ch
sandwich s</w>
sam e
same di</w>
sal ted</w>
sal ons</w>
sain te</w>
sain t</w>
sai si</w>
sai gne</w>
sac s</w>
sac red</w>
sa oul</w>
sa di
s èches</w>
s sent</w>
s ources</w>
s oun
soun ding</w>
s onné</w>
s onn
s n
s me</w>
s its</w>
s giving</w>
s est</w>
s ends</w>
s cri
s car</w>
s cand
s bru
sbru ck</w>
s ation</w>
s aper</w>
s ank</w>
s ang
sang lots</w>
s an</w>
s ake</w>
s aisons</w>
s ais
sais it</w>
rê ver</w>
révé la</w>
réussi ra</w>
réus sit</w>
réus sir</w>
résul tat</w>
résou dra</w>
résidenti elle</w>
rési dent</w>
répon ses</w>
répar é</w>
répar ez</w>
répar ation</w>
rép éter</w>
rép and
régi me</w>
rég ler</w>
rédu ite</w>
rédu ire</w>
récon ci
réclam é</w>
réc it</w>
réalis é</w>
ré vél
ré volution</w>
ré veiller</w>
ré v
ré sister</w>
ré side</w>
ré server</w>
ré proch
ré pan
répan dit</w>
ré ment</w>
ré fri
réfri gér
réfrigér ateur</w>
ré fl
réfl exion</w>
ré el</w>
ré com
ré chauff
ré able</w>
ru st
ru se</w>
ru re</w>
ru min
ru g</w>
ru b
rub b
rubb ish</w>
roy ale</w>
rou é</w>
rou p</w>
ron y
ron d</w>
rom pu</w>
rom pre</w>
ro wn</w>
ro ssée</w>
ro pl
ropl ets</w>
ro ot</w>
ro ll
ro ir</w>
ro di
rodi si
ro buste</w>
ro ast</w>
rist ina</w>
ris ks</w>
ris ked</w>
rin c
rinc ess</w>
rigo ler</w>
ridicu le</w>
ri x</w>
ri val</w>
ri fle</w>
ri ci
rici a</w>
retour ne</w>
reti ré</w>
reti rer</w>
retar dé</w>
retar ded</w>
ress enti
respec té</w>
respec tent</w>
resp ected</w>
resour ceful</w>
res terai</w>
res pl
respl en
res idential</w>
res cue</w>
requi red</w>
requ ête</w>
représent ant</w>
renomm ée</w>
rend rai</w>
rend ait</w>
rencontr ées</w>
rencontr es</w>
rencontr a</w>
ren tres</w>
ren tre</w>
ren dit</w>
ren de</w>
ren ce</w>
ren card</w>
rempl is</w>
remar qu
rem et
rem bour
rembour ser</w>
reli eved</w>
reli ef</w>
reli able</w>
relax ed</w>
rel evant</w>
rel ations</w>
rel ation
rejo ins</w>
regu lar</w>
regrett able</w>
regard ait</w>
regard ais</w>
regar ded</w>
reg istr
registr é</w>
refus er</w>
refus ait</w>
refus a</w>
refu ge</w>
redu ced</w>
recomm ended</w>
recogni zed</w>
reco very</w>
reci pe</w>
recherch ons</w>
recev oir</w>
recei ve</w>
rec ent</w>
re ço
re war
re volution</w>
re venus</w>
re venge</w>
re traite</w>
re tired</w>
re tenir</w>
re ques
re prise</w>
re pris</w>
re pose</w>
re pos</w>
re pos
re porter</w>
re por
re place</w>
re plac
re mu
re mo
re min
re h
re fres
re four</w>
re connais</w>
re comman
re cherches</w>
re charg
re cette</w>
re and
ray ons</w>
ras ili
rasili a</w>
rang é</w>
rand onn
ram en
rain bo
rainbo w</w>
rai ne</w>
rag ie</w>
radi um</w>
racon té</w>
racon te</w>
rac ines</w>
rac es</w>
r ôti</w>
r ush</w>
r tre</w>
r ors</w>
r ly</w>
r ings</w>
r ho
r ented</w>
r ent
r ays</w>
r até</w>
r ational</w>
r ation
ration nel</w>
r assem
r al
r able</w>
quotidi enn
quotidienn ement</w>
quit tez</w>
quit ta</w>
ques tionnaire</w>
quel s</w>
quar ter</w>
quanti té</w>
qu és</w>
qu o</w>
qu illes</w>
qu illage</w>
qu ie</w>
qu ez</w>
pê ch
pyram ids</w>
pyram ides</w>
puri fication</w>
pur pose</w>
pun is
punis h
punish ment</w>
pul sé</w>
puiss ante</w>
puis ses</w>
puis que</w>
pu té</w>
pu ts</w>
pu mp</w>
pu ll
pu its</w>
psy cho
prési denti
prépar és</w>
prépar ées</w>
préoccup ation</w>
préf érence</w>
préf èrerais</w>
précis ément</w>
précis es</w>
pré voir</w>
pré som
pré server</w>
pré sents</w>
pré cé
pré co
préco ce</w>
pruden tes</w>
provi ding</w>
prouv ez</w>
prouv er</w>
prot ection</w>
propri été</w>
propos a</w>
proper ty</w>
pronon ça</w>
pronon ciation</w>
pron unciation</w>
pron ounce</w>
prom o
prom et</w>
progress er</w>
profess eurs</w>
profes sions</w>
prof ondé
profondé ment</w>
prof iter</w>
produc tive</w>
produc tifs</w>
produ ira</w>
produ ced</w>
proch a</w>
pro ximité</w>
pro viennent</w>
pro se</w>
pro pose</w>
pro ph
pro pag
pro of</w>
pro cé
priv il
prison er</w>
princip ales</w>
princip alement</w>
prin ts</w>
prin ted</w>
prin ce</w>
pri rent</w>
pri me</w>
pret tiest</w>
press ée</w>
press é</w>
pres idential</w>
pres erve</w>
pres ent
pres ence</w>
prend riez</w>
pren ant</w>
pre vious</w>
pre tending</w>
pre tended</w>
pre tend</w>
prati quer</w>
practi cing</w>
practi ce</w>
pr être</w>
pr ennes</w>
pr enne</w>
pr aise</w>
pous sière</w>
pous sa</w>
pour suivre</w>
pour suivi</w>
pour rions</w>
poup ées</w>
pou vions</w>
pou n
pou let</w>
pou dre</w>
poss èdes</w>
pos ées</w>
pos ture</w>
pos ted</w>
pos itive</w>
pos eriez</w>
port ent</w>
port ant</w>
por ts</w>
por tion</w>
popul ar
ponctu elle</w>
pon t</w>
pon ents</w>
politici an</w>
poli cier</w>
pol lu
pois on
poison ous</w>
poin te</w>
poi trine</w>
po ési
po èmes</w>
po x</w>
po wer
po or
po ll
poll o</w>
po ker</w>
po il</w>
po cket</w>
po ches</w>
plu riel</w>
plu ies</w>
pleuv ra</w>
pleuv ait</w>
pleu ve</w>
pleu res</w>
plea sures</w>
ple ins</w>
play ground</w>
play er</w>
plan té</w>
plan ter</w>
plais an
plain te</w>
plain dre</w>
plac es</w>
pl é</w>
pl ural</w>
pl orable</w>
pl or
pl on
pl exe</w>
pl ement</w>
pl em
pl ats</w>
pl at</w>
pl at
pl ash</w>
pl as
pl ant</w>
piè ge</w>
pizz eria</w>
piti é</w>
pisto let</w>
pir ate</w>
pil ule</w>
piec es</w>
pickpo cket</w>
pian iste</w>
pian ist</w>
pi ég
pi ez</w>
pi er</w>
pi er
pier res</w>
photo syn
photo grap
photo copi
pho sp
pharm ac
ph on</w>
ph on
persu ad
personn ellement</w>
personn ages</w>
person ality</w>
person al</w>
perman ent</w>
per sion</w>
per plexe</w>
per ons</w>
per met</w>
per met
per dit</w>
per des</w>
per d
per cent</w>
per c
perc eption</w>
pens ée</w>
pen cha</w>
pein tures</w>
pea ceful</w>
pea ce</w>
pay check</w>
pati o</w>
pat tes</w>
pat rio
pat ent</w>
pass és</w>
pass ons</w>
pass ing</w>
pass es</w>
pass erai</w>
pass era</w>
pass ant</w>
particip é</w>
parti ci
parti ally</w>
part ager</w>
part agent</w>
part age</w>
paro v</w>
paro les</w>
parl erai</w>
parl ais</w>
paress eux</w>
para ît</w>
par venu</w>
par venir</w>
par v
par ten
par i</w>
par fu
parfu m</w>
par faite</w>
par eille</w>
par donné</w>
par donner</w>
par donne</w>
par cour
par as
paras ol</w>
par an
paran o
par ach
parach ute</w>
pap ill
pap i
papi ers</w>
pan ne</w>
pain tings</w>
pai x</w>
pai erai</w>
pacifi ques</w>
p étrin</w>
p és</w>
p unition</w>
p neu
p it</w>
p inte</w>
p int</w>
p ill</w>
p ful</w>
p ec
p aus
paus ed</w>
p anc
p am
p al</w>
p ages</w>
p ach
pach in
pachin ko</w>
p .
ow ever</w>
over looked</w>
ouv ris</w>
ouv ez</w>
outr age</w>
oun t</w>
oun g</w>
oun es</w>
oun an</w>
ou ve</w>
ou tils</w>
ou ter</w>
ou ille</w>
ou illard</w>
ou b</w>
os ex
orm ous</w>
origin aire</w>
orig ine</w>
ori ze</w>
ori ko</w>
ori entation</w>
ordin ary</w>
orc ez</w>
or é</w>
or te
or o</w>
or ld</w>
or i</w>
or es
or donna</w>
or ders</w>
or dering</w>
or d
ord an</w>
or bite</w>
or as</w>
opér a</w>
oppos ite</w>
oper a</w>
op érer</w>
op âtre</w>
op posé</w>
op k
opk ins</w>
op h
oph ysi
op a
opa tra</w>
onn ette</w>
onn aise</w>
onn aire</w>
ong ée</w>
ong les</w>
ong ler</w>
on éreuse</w>
on ze</w>
on to</w>
on ia</w>
on go</w>
on cer</w>
om ati
oli c</w>
old man</w>
old est</w>
ol é</w>
ol ym
ok o</w>
ok er</w>
ok ay</w>
oh am
oham med</w>
offen ser</w>
off re</w>
off ert</w>
off ense</w>
off ended</w>
ocr acy</w>
occur red</w>
occup ées</w>
occu r</w>
oc ío</w>
oc re</w>
oc a</w>
oblig ed</w>
obli gé</w>
objec ts</w>
ob é
ob u</w>
ob tient</w>
ob tenir</w>
ob in
obin son</w>
o ût</w>
o xyg
o tion
o tic</w>
o sau
o ls</w>
o lives</w>
o lis
olis h</w>
o ins</w>
o grap
o di
o ch
o be
obe y</w>
numéri que</w>
numb ers</w>
nu age</w>
nov embre</w>
nour rir</w>
nor th</w>
nor ma
norma le</w>
nor m
norm aux</w>
nor d</w>
nom s</w>
nom bres</w>
no where</w>
no tion</w>
no ti
no ter</w>
no tebook</w>
no irs</w>
nitu de</w>
ni cot
nicot ine</w>
ni a</w>
netto y
nes ty</w>
neigh bor
neighbor hood</w>
neigh bo
neighbo r</w>
neig er</w>
nei ther</w>
nee dn</w>
nec k</w>
ne go
nego ti
ne es</w>
nav igu
navigu er</w>
nat ation</w>
nag ea</w>
nag e
nage ant</w>
na ï
na ked</w>
n ôtres</w>
n égoci
n u</w>
n son</w>
n sbruck</w>
n ons</w>
n ine</w>
n ick
nick name</w>
n ation</w>
n as
nas ty</w>
n ar
nar row</w>
n ails</w>
n ail</w>
n ai
nai ve</w>
n agent</w>
mê ler</w>
méth ode</w>
méri tons</w>
médic ament</w>
médic am
médicam ents</w>
médec ine</w>
méd uses</w>
mé prise</w>
mé pri
mé lang
mé can
mè nent</w>
myst ère</w>
myst ery</w>
mus ic
murmu ra</w>
mur der</w>
mu se</w>
mu r</w>
mu m</w>
mu lé</w>
mu g</w>
mour raient</w>
moun tains</w>
mou sines</w>
mou choir</w>
mou che</w>
morc eaux</w>
mor du</w>
montr é</w>
mont ag
montag nes</w>
mon y</w>
mon té</w>
mon tra</w>
mon tez</w>
mon key</w>
moder ne</w>
mo ving</w>
mo ves</w>
mo vement</w>
mo tel</w>
mo stly</w>
mo squ
mo que</w>
mo e</w>
mo del</w>
mo cr
miséri corde</w>
mis sionner</w>
mis es</w>
mis ery</w>
min y</w>
min istr
ministr ation</w>
min eur</w>
min es</w>
milli onnaire</w>
milli onaire</w>
milli ards</w>
mili a</w>
mign onnes</w>
mid night</w>
mi te</w>
mi ons</w>
mi lieu</w>
mi ens</w>
meu rtre</w>
meth od</w>
met tais</w>
mess ed</w>
mess ages</w>
mes ures</w>
merveill euse</w>
mer dé</w>
men u</w>
men tion</w>
men te</w>
men songes</w>
men sion</w>
men acé</w>
mem orize</w>
mel on</w>
meilleu res</w>
meill eurs</w>
mean ings</w>
mean ing</w>
mea sure</w>
me ets</w>
me eny</w>
may onnaise</w>
mat olog
mat ern
matern elle</w>
mas tered</w>
mas och
march ant</w>
mar velous</w>
mar shmallows</w>
mar rant</w>
mar k</w>
mar ath
marath on</w>
manu elle</w>
manifes tation</w>
mang es</w>
mang eons</w>
mand at</w>
man us
man ner</w>
man age</w>
man ag
manag ement</w>
mal sain</w>
mal ins</w>
mal igne</w>
mal heur</w>
mal entendu</w>
mal ad
malad ro
magnifi que</w>
mag nitude</w>
mag ici
ma quillage</w>
ma p</w>
m és</w>
m pic</w>
m oul
m ons</w>
m m</w>
m ere</w>
m ence</w>
m aire</w>
m aid</w>
m ai</w>
m ad
mad ness</w>
lé opâtre</w>
lè vres</w>
ly mpic</w>
ly fish</w>
lun dis</w>
lumi ères</w>
lu x
lu gg
lugg age</w>
loy al</w>
lour ds</w>
lour de</w>
lou pé</w>
lou p</w>
lou er</w>
loo p</w>
loo dy</w>
lon ies</w>
log ist</w>
log ical</w>
loc ation</w>
loc ated</w>
lo ween</w>
lo ving</w>
lo is
lois irs</w>
lo gue</w>
lo cal
local es</w>
lo an</w>
lo ad
ll y
ll et</w>
ll ard</w>
lis s</w>
lis ez</w>
liqui de</w>
lip se</w>
lic t</w>
lic en
li és</w>
li ère</w>
li ts</w>
li p</w>
li mousines</w>
li mite</w>
li gh
li g
li chée</w>
li b
li ar</w>
lev ée</w>
lev ez</w>
lev a</w>
lem ons</w>
lec ture</w>
lea ther</w>
lea ped</w>
lea f</w>
lea der</w>
le y</w>
le opatra</w>
le j
lej andra</w>
le i
lei sure</w>
le f
lef tovers</w>
lav és</w>
lav age</w>
laugh ter</w>
lau gh</w>
lar me</w>
lar gement</w>
lap in</w>
land aise</w>
lais ses</w>
lais sa</w>
labor ato
laborato ire</w>
lab or</w>
la ïde</w>
la p</w>
l ton</w>
l ez</w>
l end
lend em
lendem ain</w>
l ence</w>
l en
l ead</w>
l ancé</w>
l aine</w>
l aide</w>
l ai
lai tiers</w>
knowle dge</w>
kno cked</w>
kilom ètres</w>
kil t</w>
kil ea
kilea ks</w>
kee per</w>
kar a</w>
kar a
k ward</w>
k raine</w>
k nees</w>
k n
k id
kid ding</w>
k i</w>
k ets</w>
k erv
kerv illes</w>
jum ped</w>
jug ez</w>
jug ement</w>
ju in</w>
jou euses</w>
jou et</w>
jou ant</w>
jou ais</w>
jo yeux</w>
jo y</w>
jo king</w>
jo kes</w>
jo ined</w>
jo bs</w>
jet ez</w>
jel lyfish</w>
jau ne</w>
japon aises</w>
j ongler</w>
j ong</w>
j ban</w>
j az
jaz z</w>
j ac
jac ket</w>
iti f</w>
it ate</w>
it alism</w>
it alien</w>
ist es</w>
ist er</w>
issu es</w>
iss ant</w>
is ée</w>
is sion</w>
is sent</w>
is land</w>
is ez</w>
